{
    "version": "1.0",
    "truncation": null,
    "padding": null,
    "added_tokens": [
        {
            "id": 0,
            "content": "<unk>",
            "single_word": false,
            "lstrip": false,
            "rstrip": false,
            "normalized": false,
            "special": true
        },
        {
            "id": 1,
            "content": "<s>",
            "single_word": false,
            "lstrip": false,
            "rstrip": false,
            "normalized": false,
            "special": true
        },
        {
            "id": 2,
            "content": "</s>",
            "single_word": false,
            "lstrip": false,
            "rstrip": false,
            "normalized": false,
            "special": true
        },
        {
            "id": 3,
            "content": "<pad>",
            "single_word": false,
            "lstrip": false,
            "rstrip": false,
            "normalized": false,
            "special": true
        }
    ],
    "normalizer": null,
    "pre_tokenizer": {
        "type": "Sequence",
        "pretokenizers": [
            {
                "type": "Split",
                "pattern": {
                    "Regex": " ?[^(\\s|[.,!?…。，、।۔،])]+"
                },
                "behavior": "Isolated",
                "invert": false
            },
            {
                "type": "ByteLevel",
                "add_prefix_space": false,
                "trim_offsets": true,
                "use_regex": false
            }
        ]
    },
    "post_processor": {
        "type": "ByteLevel",
        "add_prefix_space": true,
        "trim_offsets": false,
        "use_regex": false
    },
    "decoder": {
        "type": "ByteLevel",
        "add_prefix_space": true,
        "trim_offsets": true,
        "use_regex": false
    },
    "model": {
        "type": "BPE",
        "dropout": null,
        "unk_token": null,
        "continuing_subword_prefix": null,
        "end_of_word_suffix": null,
        "fuse_unk": false,
        "vocab": {
            "<unk>": 0,
            "<s>": 1,
            "</s>": 2,
            "<pad>": 3,
            "!": 4,
            "\"": 5,
            "#": 6,
            "$": 7,
            "%": 8,
            "&": 9,
            "'": 10,
            "(": 11,
            ")": 12,
            "*": 13,
            "+": 14,
            ",": 15,
            "-": 16,
            ".": 17,
            "/": 18,
            "0": 19,
            "1": 20,
            "2": 21,
            "3": 22,
            "4": 23,
            "5": 24,
            "6": 25,
            "7": 26,
            "8": 27,
            "9": 28,
            ":": 29,
            ";": 30,
            "<": 31,
            "=": 32,
            ">": 33,
            "?": 34,
            "@": 35,
            "A": 36,
            "B": 37,
            "C": 38,
            "D": 39,
            "E": 40,
            "F": 41,
            "G": 42,
            "H": 43,
            "I": 44,
            "J": 45,
            "K": 46,
            "L": 47,
            "M": 48,
            "N": 49,
            "O": 50,
            "P": 51,
            "Q": 52,
            "R": 53,
            "S": 54,
            "T": 55,
            "U": 56,
            "V": 57,
            "W": 58,
            "X": 59,
            "Y": 60,
            "Z": 61,
            "[": 62,
            "\\": 63,
            "]": 64,
            "^": 65,
            "_": 66,
            "`": 67,
            "a": 68,
            "b": 69,
            "c": 70,
            "d": 71,
            "e": 72,
            "f": 73,
            "g": 74,
            "h": 75,
            "i": 76,
            "j": 77,
            "k": 78,
            "l": 79,
            "m": 80,
            "n": 81,
            "o": 82,
            "p": 83,
            "q": 84,
            "r": 85,
            "s": 86,
            "t": 87,
            "u": 88,
            "v": 89,
            "w": 90,
            "x": 91,
            "y": 92,
            "z": 93,
            "{": 94,
            "|": 95,
            "}": 96,
            "~": 97,
            "¡": 98,
            "¢": 99,
            "£": 100,
            "¤": 101,
            "¥": 102,
            "¦": 103,
            "§": 104,
            "¨": 105,
            "©": 106,
            "ª": 107,
            "«": 108,
            "¬": 109,
            "®": 110,
            "¯": 111,
            "°": 112,
            "±": 113,
            "²": 114,
            "³": 115,
            "´": 116,
            "µ": 117,
            "¶": 118,
            "·": 119,
            "¸": 120,
            "¹": 121,
            "º": 122,
            "»": 123,
            "¼": 124,
            "½": 125,
            "¾": 126,
            "¿": 127,
            "Â": 128,
            "Ã": 129,
            "Ä": 130,
            "Å": 131,
            "Æ": 132,
            "Ç": 133,
            "È": 134,
            "É": 135,
            "Ê": 136,
            "Ë": 137,
            "Ì": 138,
            "Í": 139,
            "Î": 140,
            "Ï": 141,
            "Ð": 142,
            "Ñ": 143,
            "Ò": 144,
            "Ó": 145,
            "Ô": 146,
            "Õ": 147,
            "Ö": 148,
            "×": 149,
            "Ø": 150,
            "Ù": 151,
            "Ú": 152,
            "Û": 153,
            "Ü": 154,
            "Ý": 155,
            "Þ": 156,
            "ß": 157,
            "à": 158,
            "á": 159,
            "â": 160,
            "ã": 161,
            "ä": 162,
            "å": 163,
            "æ": 164,
            "ç": 165,
            "è": 166,
            "é": 167,
            "ê": 168,
            "ë": 169,
            "ì": 170,
            "í": 171,
            "î": 172,
            "ï": 173,
            "ð": 174,
            "ñ": 175,
            "ò": 176,
            "ó": 177,
            "ô": 178,
            "Ā": 179,
            "ā": 180,
            "Ă": 181,
            "ă": 182,
            "Ą": 183,
            "ą": 184,
            "Ć": 185,
            "ć": 186,
            "Ĉ": 187,
            "ĉ": 188,
            "Ċ": 189,
            "Č": 190,
            "č": 191,
            "Ď": 192,
            "ď": 193,
            "Đ": 194,
            "đ": 195,
            "Ē": 196,
            "ē": 197,
            "Ĕ": 198,
            "ĕ": 199,
            "Ė": 200,
            "ė": 201,
            "Ę": 202,
            "ę": 203,
            "Ě": 204,
            "ě": 205,
            "Ĝ": 206,
            "ĝ": 207,
            "Ğ": 208,
            "ğ": 209,
            "Ġ": 210,
            "ġ": 211,
            "Ģ": 212,
            "ģ": 213,
            "Ĥ": 214,
            "ĥ": 215,
            "Ħ": 216,
            "ħ": 217,
            "Ĩ": 218,
            "ĩ": 219,
            "Ī": 220,
            "ī": 221,
            "Ĭ": 222,
            "ĭ": 223,
            "Į": 224,
            "į": 225,
            "İ": 226,
            "ı": 227,
            "Ĳ": 228,
            "ĳ": 229,
            "Ĵ": 230,
            "ĵ": 231,
            "Ķ": 232,
            "ķ": 233,
            "ĸ": 234,
            "Ĺ": 235,
            "ĺ": 236,
            "Ļ": 237,
            "ļ": 238,
            "Ľ": 239,
            "ľ": 240,
            "Ŀ": 241,
            "ŀ": 242,
            "Ł": 243,
            "ł": 244,
            "Ń": 245,
            "à¤": 246,
            "à¦": 247,
            "Ġà": 248,
            "à¥": 249,
            "ĠĠ": 250,
            "à®": 251,
            "Ġd": 252,
            "Ġà¤": 253,
            "à²": 254,
            "à°": 255,
            "an": 256,
            "en": 257,
            "à´": 258,
            "er": 259,
            "Ø§": 260,
            "Ġt": 261,
            "es": 262,
            "àª": 263,
            "à¨": 264,
            "in": 265,
            "on": 266,
            "Ġa": 267,
            "Ġc": 268,
            "Ġp": 269,
            "à§": 270,
            "à¬": 271,
            "Ġs": 272,
            "ar": 273,
            "à¯": 274,
            "Ġl": 275,
            "ÙĦ": 276,
            "à¤¾": 277,
            "at": 278,
            "Ġm": 279,
            "or": 280,
            "Ġà¦": 281,
            "ĠØ": 282,
            "Ġde": 283,
            "àµ": 284,
            "al": 285,
            "ĠĠĠĠ": 286,
            "ĠÙ": 287,
            "á»": 288,
            "re": 289,
            "is": 290,
            "it": 291,
            "à±": 292,
            "à³": 293,
            "Ġn": 294,
            "à¤¾à¤": 295,
            "as": 296,
            "Ġe": 297,
            "à¥į": 298,
            "à¥įà¤": 299,
            "Ġb": 300,
            "à¯į": 301,
            "os": 302,
            "Ġth": 303,
            "Ġà¨": 304,
            "à«": 305,
            "qu": 306,
            "ent": 307,
            "ÙĨ": 308,
            "un": 309,
            "à©": 310,
            "Ã©": 311,
            "ÙĬ": 312,
            "Ø±": 313,
            "à¦¾": 314,
            "à¥ĩ": 315,
            "Ø§ÙĦ": 316,
            "ä¸": 317,
            "Ġh": 318,
            "Ġf": 319,
            "Ġàª": 320,
            "ï¼": 321,
            "ic": 322,
            "ur": 323,
            "ÙĪ": 324,
            "Ùħ": 325,
            "ad": 326,
            "le": 327,
            "am": 328,
            "Ġo": 329,
            "àµį": 330,
            "áº": 331,
            "àŃ": 332,
            "om": 333,
            "ãĢ": 334,
            "Ġà®": 335,
            ".Ċ": 336,
            "Ġv": 337,
            "ion": 338,
            "à¤¿": 339,
            "Ø§Ø": 340,
            "à¦¾à¦": 341,
            "Ġà°": 342,
            "el": 343,
            "Ġqu": 344,
            "à§ĩ": 345,
            "à¯įà®": 346,
            "ĠØ§ÙĦ": 347,
            "em": 348,
            "Ġà²": 349,
            "ro": 350,
            "us": 351,
            "Ġk": 352,
            "à¤°": 353,
            "il": 354,
            "ï¼Į": 355,
            "id": 356,
            "àµįà´": 357,
            "à¥Ģ": 358,
            "âĢ": 359,
            "à§į": 360,
            "Ġin": 361,
            "ÛĮ": 362,
            "ut": 363,
            "et": 364,
            "à§įà¦": 365,
            "Ġla": 366,
            "Ãł": 367,
            "Ġthe": 368,
            "à¦¿": 369,
            "à¤¿à¤": 370,
            "çļ": 371,
            "Ġw": 372,
            "çļĦ": 373,
            "Ã³": 374,
            "Ġ(": 375,
            "ed": 376,
            "ac": 377,
            "Ġà¬": 378,
            "Øª": 379,
            "Ġg": 380,
            "im": 381,
            "äº": 382,
            "ng": 383,
            "à³į": 384,
            "Ġà´": 385,
            "ing": 386,
            "ia": 387,
            "est": 388,
            "Ã¡": 389,
            "àª¾": 390,
            "ol": 391,
            "and": 392,
            "Ġy": 393,
            "à±į": 394,
            "ak": 395,
            "ir": 396,
            "Ġà¤ķ": 397,
            "à¥ĭ": 398,
            "à®¿": 399,
            "à¤¨": 400,
            "à³įà²": 401,
            "à¯ģ": 402,
            "ĠS": 403,
            "Ġ1": 404,
            "ĠC": 405,
            "Ø¯": 406,
            "ul": 407,
            "Ġque": 408,
            "à¤ķ": 409,
            "Ġr": 410,
            "ec": 411,
            "à²¿": 412,
            "Ġen": 413,
            "à¦¿à¦": 414,
            "Ġ2": 415,
            "ĠĠĠ": 416,
            "à±įà°": 417,
            "à®¿à®": 418,
            "ĠA": 419,
            "ãĢĤ": 420,
            "Ùĩ": 421,
            "à¨¾": 422,
            "ang": 423,
            "æľ": 424,
            "à°¿": 425,
            "ĠP": 426,
            "Ġto": 427,
            "Ġre": 428,
            "ĠĠĠĠĠĠĠĠ": 429,
            "ĠÙħ": 430,
            "Ø©": 431,
            "Ġcon": 432,
            "ĠÄ": 433,
            "Ú©": 434,
            "ĠM": 435,
            "àª¾àª": 436,
            "à±ģ": 437,
            "à¤Ĥ": 438,
            "åħ": 439,
            "um": 440,
            "ÃŃ": 441,
            "ä»": 442,
            "à§ĩà¦": 443,
            "Ø¨": 444,
            "ĠT": 445,
            "ant": 446,
            "Ġun": 447,
            "åı": 448,
            "Ø¹": 449,
            "à°¾": 450,
            "à´¿": 451,
            "à¤¤": 452,
            "ĠÄĳ": 453,
            "tr": 454,
            "ta": 455,
            "iv": 456,
            "ig": 457,
            "Ġse": 458,
            "Ùİ": 459,
            "ik": 460,
            "Ġof": 461,
            "00": 462,
            "Ø³": 463,
            "à²¿à²": 464,
            "ab": 465,
            "Ġel": 466,
            "ÙĤ": 467,
            "ĠÙĪ": 468,
            "à¯ģà®": 469,
            "à¬¾": 470,
            "Ġtr": 471,
            "Ġà¤¸": 472,
            "ĠI": 473,
            "à°¾à°": 474,
            "ag": 475,
            "àŃį": 476,
            "à«ĩ": 477,
            "à³ģ": 478,
            "ot": 479,
            "à¤²": 480,
            "åľ": 481,
            "à¥ģ": 482,
            "ap": 483,
            "Ġch": 484,
            "Ûģ": 485,
            "å¤": 486,
            "à¨¾à¨": 487,
            "ch": 488,
            "à´¿à´": 489,
            "ĠB": 490,
            "ÛĴ": 491,
            "ay": 492,
            "à²¾": 493,
            "å®": 494,
            "Ġcom": 495,
            "à¬¿": 496,
            "ĠÚ©": 497,
            "Ùģ": 498,
            "ĠL": 499,
            "àµģ": 500,
            "Ġpar": 501,
            "à¤¸": 502,
            "Ġ.": 503,
            "Ġj": 504,
            "à¬°": 505,
            "ä½": 506,
            "Ùĥ": 507,
            "åĪ": 508,
            "à²¾à²": 509,
            "ah": 510,
            "ĠØ¨": 511,
            "if": 512,
            "ĠE": 513,
            "te": 514,
            "åĲ": 515,
            "Ġal": 516,
            "ĠD": 517,
            "ers": 518,
            "æĸ": 519,
            "ation": 520,
            "Ġand": 521,
            "od": 522,
            "æĪ": 523,
            "ĉĉ": 524,
            "oc": 525,
            "æĺ": 526,
            "av": 527,
            "Ġpro": 528,
            "ou": 529,
            "å¹": 530,
            "st": 531,
            "ĠN": 532,
            "ct": 533,
            "res": 534,
            "ter": 535,
            "end": 536,
            "Ġ=": 537,
            "..": 538,
            "Ġ\"": 539,
            "å°": 540,
            "ce": 541,
            "è¿": 542,
            "ib": 543,
            "ĠR": 544,
            "Ġle": 545,
            "åĽ": 546,
            "çĶ": 547,
            "ud": 548,
            "iz": 549,
            "Ãª": 550,
            "se": 551,
            "ä¹": 552,
            "Ã¨": 553,
            "ãĢģ": 554,
            "ĠâĢ": 555,
            "Ġdes": 556,
            "up": 557,
            "--": 558,
            "ai": 559,
            "ĠG": 560,
            "Ġper": 561,
            "ip": 562,
            "åĬ": 563,
            "our": 564,
            "åį": 565,
            "Ġfor": 566,
            "ĠF": 567,
            "Ġes": 568,
            "ist": 569,
            "ä¸Ģ": 570,
            "ĠH": 571,
            "eng": 572,
            "ub": 573,
            "uk": 574,
            "Ġdel": 575,
            "io": 576,
            "ĠJ": 577,
            "Ġ,": 578,
            "Ġis": 579,
            "ĠK": 580,
            "op": 581,
            "ie": 582,
            "Ġpr": 583,
            "æĺ¯": 584,
            "æĹ": 585,
            "Ġ-": 586,
            "åľ¨": 587,
            "åŃ": 588,
            "01": 589,
            "Ġno": 590,
            "ate": 591,
            "ort": 592,
            "Ġan": 593,
            "Ġas": 594,
            "Ġon": 595,
            "Ãº": 596,
            "nh": 597,
            "he": 598,
            "pl": 599,
            "å¾": 600,
            "ue": 601,
            "ä¼": 602,
            "Ġet": 603,
            "Ġdi": 604,
            "Ġles": 605,
            "è®": 606,
            "ect": 607,
            "ya": 608,
            "Ġex": 609,
            "ow": 610,
            "ç»": 611,
            "æĿ": 612,
            "äºº": 613,
            "ĠÃł": 614,
            "ada": 615,
            "ra": 616,
            "ans": 617,
            "Ġz": 618,
            "de": 619,
            "æľī": 620,
            "Ġi": 621,
            "ere": 622,
            "å¹´": 623,
            "ment": 624,
            "Ġit": 625,
            "Ġbe": 626,
            "åĴ": 627,
            "th": 628,
            "âĢĻ": 629,
            "Ġdo": 630,
            "è¡": 631,
            "Ġ{": 632,
            "ob": 633,
            "ug": 634,
            "éĢ": 635,
            "Ġ3": 636,
            "è¯": 637,
            "æī": 638,
            "ess": 639,
            "Ġng": 640,
            "og": 641,
            "åĴĮ": 642,
            "ä¸į": 643,
            "ado": 644,
            "Ġ'": 645,
            "ari": 646,
            "ĠW": 647,
            "ver": 648,
            "ĠU": 649,
            "Ġem": 650,
            "å·": 651,
            "ial": 652,
            "ĠO": 653,
            "ill": 654,
            "ä¸Ń": 655,
            "éĩ": 656,
            "Ã¬": 657,
            "äºĨ": 658,
            "æŃ": 659,
            "emb": 660,
            "ĠV": 661,
            "kan": 662,
            "ain": 663,
            "Ġor": 664,
            "å¸": 665,
            "Ġne": 666,
            "åº": 667,
            "Ġdu": 668,
            "all": 669,
            "au": 670,
            "Ġsu": 671,
            "ãĢĤĊ": 672,
            "Ġpl": 673,
            "åĮ": 674,
            "era": 675,
            "Ġar": 676,
            "åĨ": 677,
            "èĢ": 678,
            "ass": 679,
            "Ġph": 680,
            "åĩ": 681,
            "ert": 682,
            "ong": 683,
            "å¼": 684,
            "æĪĳ": 685,
            "åĽ½": 686,
            "ais": 687,
            "ith": 688,
            "ri": 689,
            "Ġmen": 690,
            "Ġad": 691,
            "ont": 692,
            "Ġthat": 693,
            "æķ": 694,
            "ĠÂ": 695,
            "Ã²": 696,
            "éģ": 697,
            "æĶ": 698,
            "Ġwh": 699,
            "Ġlos": 700,
            "å¥": 701,
            "que": 702,
            "ens": 703,
            "art": 704,
            "Ġap": 705,
            "å¤§": 706,
            "()": 707,
            "me": 708,
            "å¯": 709,
            "Ġda": 710,
            "imp": 711,
            "ok": 712,
            "çĽ": 713,
            "Ġ/": 714,
            "ek": 715,
            "æ³": 716,
            "ell": 717,
            "ä»¥": 718,
            "å±": 719,
            "Ġam": 720,
            "19": 721,
            "Ġ:": 722,
            "for": 723,
            "Ġat": 724,
            "ult": 725,
            "und": 726,
            "éĻ": 727,
            "ung": 728,
            "åĳ": 729,
            "Ġ0": 730,
            "az": 731,
            "çī": 732,
            "Ġ4": 733,
            "enc": 734,
            "ente": 735,
            "Ġ*": 736,
            "ions": 737,
            "ata": 738,
            "wa": 739,
            "éĥ": 740,
            "cl": 741,
            "ne": 742,
            "ä¼ļ": 743,
            "è¦": 744,
            "ve": 745,
            "ara": 746,
            "Ġ19": 747,
            "Ġst": 748,
            "Ġres": 749,
            "Ġ201": 750,
            "int": 751,
            "èĩ": 752,
            "eb": 753,
            "Ġx": 754,
            "Ġ$": 755,
            "Ġ5": 756,
            "ure": 757,
            "Ġus": 758,
            "tic": 759,
            "Ġum": 760,
            "âĢĿ": 761,
            "ht": 762,
            "ame": 763,
            "æł": 764,
            "Ġfr": 765,
            "ine": 766,
            "ind": 767,
            "ian": 768,
            "æĭ": 769,
            "æ°": 770,
            "Ġac": 771,
            "ly": 772,
            "Ġwith": 773,
            "aj": 774,
            "ĠIn": 775,
            "Ġdis": 776,
            "age": 777,
            "),": 778,
            "ç§": 779,
            "**": 780,
            "?Ċ": 781,
            "ä¸º": 782,
            "lic": 783,
            "to": 784,
            "ep": 785,
            "emp": 786,
            "è§": 787,
            "uc": 788,
            "æĬ": 789,
            "ord": 790,
            "æĢ": 791,
            "eg": 792,
            "ien": 793,
            "ient": 794,
            "ons": 795,
            "éĿ": 796,
            "ement": 797,
            "ier": 798,
            "amb": 799,
            "ive": 800,
            "ä»ĸ": 801,
            "ies": 802,
            "ho": 803,
            "Ġme": 804,
            "èµ": 805,
            "ä¾": 806,
            "Ġ}": 807,
            "02": 808,
            "ä¿": 809,
            "pe": 810,
            "æ²": 811,
            "éĹ": 812,
            "ix": 813,
            "Ġab": 814,
            "å½": 815,
            "åİ": 816,
            "ard": 817,
            "Ġna": 818,
            "Ġ[": 819,
            "è¡Į": 820,
            "æĹ¥": 821,
            "ait": 822,
            "Ã©r": 823,
            "Ġthis": 824,
            "ä¸Ĭ": 825,
            "åĢ": 826,
            "ost": 827,
            "ile": 828,
            "èĥ": 829,
            "Ġnot": 830,
            "çİ": 831,
            "ff": 832,
            "çĤ": 833,
            "Ġ200": 834,
            "ex": 835,
            "----": 836,
            "Ġcl": 837,
            "Ġ+": 838,
            "å¿": 839,
            "anc": 840,
            "Ġyou": 841,
            "unt": 842,
            "uy": 843,
            "gr": 844,
            "ha": 845,
            "ide": 846,
            "amp": 847,
            "Ġ)": 848,
            "Ġpre": 849,
            "çº": 850,
            "act": 851,
            "ç¬": 852,
            "è¦ģ": 853,
            "ana": 854,
            "nya": 855,
            "èģ": 856,
            "Ã±": 857,
            "200": 858,
            "//": 859,
            "ity": 860,
            "Ġgr": 861,
            "åĪ°": 862,
            "ous": 863,
            "ua": 864,
            "ä½ł": 865,
            "con": 866,
            "ave": 867,
            "è¿Ļ": 868,
            "æŀ": 869,
            "out": 870,
            "Ġ<": 871,
            "åĩº": 872,
            "è´": 873,
            "ction": 874,
            "Ġha": 875,
            "Ġlo": 876,
            "çĶ¨": 877,
            ").": 878,
            "arg": 879,
            "ç«": 880,
            "æĸ¹": 881,
            "ä½ľ": 882,
            "æİ": 883,
            "åŁ": 884,
            "ica": 885,
            "Ġco": 886,
            "Ġ6": 887,
            "æľĪ": 888,
            "åľ°": 889,
            "able": 890,
            "ez": 891,
            "Ġav": 892,
            "ux": 893,
            "åī": 894,
            "form": 895,
            "ond": 896,
            "à²¡": 897,
            ")Ċ": 898,
            "ĠTh": 899,
            "ĠCh": 900,
            "'s": 901,
            "arr": 902,
            "ä¹ĭ": 903,
            "åı¯": 904,
            "éĽ": 905,
            "ih": 906,
            "ä¸ª": 907,
            "çĶŁ": 908,
            "__": 909,
            "çĲ": 910,
            "ire": 911,
            "ov": 912,
            "nd": 913,
            "æµ": 914,
            "æĪĲ": 915,
            "æ³ķ": 916,
            "å®¶": 917,
            "æ¯": 918,
            "pr": 919,
            "ight": 920,
            "per": 921,
            "Ġare": 922,
            "urn": 923,
            "ama": 924,
            "pt": 925,
            "ase": 926,
            "ï¼ī": 927,
            "ï¼Ī": 928,
            "ore": 929,
            "ust": 930,
            "iss": 931,
            "æ´": 932,
            "Ġif": 933,
            "ç¬¬": 934,
            "ual": 935,
            "åħ¶": 936,
            "çľ": 937,
            "ite": 938,
            "Ġby": 939,
            "æĻ": 940,
            "å¦": 941,
            "æĽ": 942,
            "les": 943,
            "}}": 944,
            "com": 945,
            "lo": 946,
            "é¢": 947,
            "ados": 948,
            "ina": 949,
            "äºİ": 950,
            "ido": 951,
            "æĮ": 952,
            "->": 953,
            "ode": 954,
            "ich": 955,
            "ace": 956,
            "åĵ": 957,
            "...": 958,
            "ign": 959,
            "cr": 960,
            "æ¬": 961,
            "ma": 962,
            "ando": 963,
            "ĠThe": 964,
            "èĪ": 965,
            "æĥ": 966,
            "Ġ7": 967,
            "ional": 968,
            "Ġsur": 969,
            "ui": 970,
            "Ġcan": 971,
            "ack": 972,
            "å§": 973,
            "ç¾": 974,
            "èĥ½": 975,
            "çŃ": 976,
            "In": 977,
            "ä¸ĭ": 978,
            "åħ¬": 979,
            "10": 980,
            "=\"": 981,
            "éĥ¨": 982,
            "ast": 983,
            "par": 984,
            "æ±": 985,
            "pos": 986,
            "uz": 987,
            "Ġso": 988,
            "ance": 989,
            "éĺ": 990,
            "aren": 991,
            "ante": 992,
            "ins": 993,
            "ime": 994,
            "è¾": 995,
            "çķ": 996,
            "Ġâ": 997,
            "Ġsa": 998,
            "Ġ8": 999,
            "Ã¹": 1000,
            "ener": 1001,
            "æĦ": 1002,
            "ko": 1003,
            "å»": 1004,
            "port": 1005,
            "æ¸": 1006,
            "é¡": 1007,
            "æı": 1008,
            "Ã¡n": 1009,
            "ĠY": 1010,
            "fer": 1011,
            "ret": 1012,
            "la": 1013,
            "Ġfrom": 1014,
            "Ľi": 1015,
            "éĤ": 1016,
            "uld": 1017,
            "æĹ¶": 1018,
            "å®ļ": 1019,
            "åŃĲ": 1020,
            "Ġmu": 1021,
            "âĢľ": 1022,
            "ĠâĢľ": 1023,
            "åĪĨ": 1024,
            "ita": 1025,
            "âĢĮ": 1026,
            "ach": 1027,
            "è¨": 1028,
            "so": 1029,
            "æīĢ": 1030,
            "Ġman": 1031,
            "èĢĮ": 1032,
            "mo": 1033,
            "asi": 1034,
            "atu": 1035,
            "ä¸»": 1036,
            "ats": 1037,
            "ï¼ļ": 1038,
            "201": 1039,
            "du": 1040,
            "11": 1041,
            "ations": 1042,
            "Ġhave": 1043,
            "æĸ°": 1044,
            "Ã©e": 1045,
            "äºĭ": 1046,
            "pres": 1047,
            "Ġer": 1048,
            "ä¹Ł": 1049,
            "çĻ": 1050,
            "âĢį": 1051,
            "é«": 1052,
            "åıĳ": 1053,
            "åĲĪ": 1054,
            "ĠUn": 1055,
            "å¤ļ": 1056,
            "Ġpart": 1057,
            "æĿ¥": 1058,
            "fr": 1059,
            "Ġ9": 1060,
            "ath": 1061,
            "é¦": 1062,
            "Ġ10": 1063,
            "ç½": 1064,
            "ject": 1065,
            "èĩª": 1066,
            "get": 1067,
            "ice": 1068,
            "ç´": 1069,
            "co": 1070,
            "ä»¬": 1071,
            "ura": 1072,
            "å°±": 1073,
            "éļ": 1074,
            "ç¨": 1075,
            "ble": 1076,
            "Ġos": 1077,
            "ern": 1078,
            "å¯¹": 1079,
            "cia": 1080,
            "min": 1081,
            "ida": 1082,
            "Ġwas": 1083,
            "ors": 1084,
            "akan": 1085,
            "å¾Ĺ": 1086,
            "vel": 1087,
            "æĸĩ": 1088,
            "çĤº": 1089,
            "ĠQ": 1090,
            "12": 1091,
            "éķ": 1092,
            "Ġ\\": 1093,
            "Ġke": 1094,
            "Ġro": 1095,
            "ona": 1096,
            "ific": 1097,
            "åĬł": 1098,
            "Ġpe": 1099,
            "ja": 1100,
            "Ġcr": 1101,
            "åĲİ": 1102,
            "ora": 1103,
            "Â·": 1104,
            "ores": 1105,
            "èª": 1106,
            "è½": 1107,
            "alam": 1108,
            "ĠâĢĶ": 1109,
            "urs": 1110,
            "ence": 1111,
            "El": 1112,
            "ç®": 1113,
            "ito": 1114,
            "Ġhe": 1115,
            "lement": 1116,
            "Âł": 1117,
            "ĠTr": 1118,
            "éŁ": 1119,
            "iqu": 1120,
            "éģĵ": 1121,
            "uh": 1122,
            "ique": 1123,
            "Ġwe": 1124,
            "åıĬ": 1125,
            "åľĭ": 1126,
            "ome": 1127,
            "ular": 1128,
            "ge": 1129,
            "za": 1130,
            "ika": 1131,
            "ĠAl": 1132,
            "Ġ|": 1133,
            "itu": 1134,
            "Ġall": 1135,
            "ĠCom": 1136,
            "åĲĮ": 1137,
            "tre": 1138,
            "ãĢĭ": 1139,
            "çĲĨ": 1140,
            "one": 1141,
            "Ã©n": 1142,
            "ãĢĬ": 1143,
            "ero": 1144,
            "::": 1145,
            "Ġ202": 1146,
            "ork": 1147,
            "vent": 1148,
            "çĪ": 1149,
            "çŁ": 1150,
            "ira": 1151,
            "è·": 1152,
            "Ġval": 1153,
            "quest": 1154,
            "å·¥": 1155,
            "ish": 1156,
            "éĿ¢": 1157,
            "åģ": 1158,
            "ias": 1159,
            "ako": 1160,
            "è®®": 1161,
            "åĳĺ": 1162,
            "ated": 1163,
            "è¥": 1164,
            "çĦ": 1165,
            "Ġout": 1166,
            "Ġsh": 1167,
            "Ġhas": 1168,
            "ela": 1169,
            "ber": 1170,
            "Ġint": 1171,
            "ç¤": 1172,
            "any": 1173,
            "der": 1174,
            "åŃĹ": 1175,
            "æĸ¯": 1176,
            "æ°ĳ": 1177,
            "Ġsi": 1178,
            "ype": 1179,
            "æĶ¿": 1180,
            "ka": 1181,
            "go": 1182,
            "è¥¿": 1183,
            "åĿ": 1184,
            "æľ¬": 1185,
            "Ġcol": 1186,
            "adi": 1187,
            "è¡¨": 1188,
            "ones": 1189,
            "è¢": 1190,
            "ĠâĢ¢": 1191,
            ".Ġ": 1192,
            "ava": 1193,
            "ĠÂ«": 1194,
            "==": 1195,
            "Ġmod": 1196,
            "000": 1197,
            "Ġho": 1198,
            "Ġim": 1199,
            "ale": 1200,
            "Ġmin": 1201,
            "åĭ": 1202,
            "ident": 1203,
            "pro": 1204,
            "cess": 1205,
            "ele": 1206,
            "tra": 1207,
            "si": 1208,
            "do": 1209,
            "Ġset": 1210,
            "iel": 1211,
            "çī¹": 1212,
            "ary": 1213,
            "ĠLa": 1214,
            "Ġ18": 1215,
            "ala": 1216,
            "inc": 1217,
            "Ġ!": 1218,
            "è°": 1219,
            "ios": 1220,
            "va": 1221,
            "æıĲ": 1222,
            "are": 1223,
            "no": 1224,
            "å°ı": 1225,
            "ph": 1226,
            "å¦Ĥ": 1227,
            "åĲį": 1228,
            "åħ¨": 1229,
            "åīį": 1230,
            "Ġgo": 1231,
            "Ġsub": 1232,
            "åł": 1233,
            "uer": 1234,
            "ä¸İ": 1235,
            "Ð°": 1236,
            "æĢ§": 1237,
            "Ġbut": 1238,
            "iÃ¨": 1239,
            "åĬ¨": 1240,
            "))": 1241,
            "Ġmat": 1242,
            "éĸ": 1243,
            "La": 1244,
            "Ãłn": 1245,
            "é«ĺ": 1246,
            "****": 1247,
            "ents": 1248,
            "unc": 1249,
            "åĽł": 1250,
            "erc": 1251,
            "åħ³": 1252,
            "åĪ©": 1253,
            "Ġsol": 1254,
            "Ġsp": 1255,
            "è¿Ľ": 1256,
            "ku": 1257,
            "ute": 1258,
            "En": 1259,
            "åŃ¦": 1260,
            "éĩĮ": 1261,
            "ras": 1262,
            "ç©": 1263,
            "anya": 1264,
            "ĠAr": 1265,
            "sp": 1266,
            "æŃ¤": 1267,
            "aya": 1268,
            "èĤ": 1269,
            "è©": 1270,
            "18": 1271,
            "ake": 1272,
            "è¿ĩ": 1273,
            "Ġ?": 1274,
            "èĢħ": 1275,
            "åĬĽ": 1276,
            "æľĢ": 1277,
            "ena": 1278,
            "ition": 1279,
            "vo": 1280,
            "xt": 1281,
            "èĭ": 1282,
            "15": 1283,
            "Ġ12": 1284,
            "ãĢĮ": 1285,
            "è¢«": 1286,
            "omb": 1287,
            "Ġform": 1288,
            "éĢļ": 1289,
            "ãĢį": 1290,
            "åĮĹ": 1291,
            "Ġ.Ċ": 1292,
            "éĥ½": 1293,
            "ser": 1294,
            "æ¡": 1295,
            "Ġnew": 1296,
            "fin": 1297,
            "çŃī": 1298,
            "ico": 1299,
            "itz": 1300,
            "ali": 1301,
            "ä»»": 1302,
            "ft": 1303,
            "Ġta": 1304,
            "ĠEl": 1305,
            "olog": 1306,
            "rol": 1307,
            "ä¸ī": 1308,
            "man": 1309,
            "Ã¨s": 1310,
            "Ġ&": 1311,
            "--------": 1312,
            "éĩį": 1313,
            "Ġreturn": 1314,
            "å¥½": 1315,
            "</": 1316,
            "å¤©": 1317,
            "Ġant": 1318,
            "Ġwhich": 1319,
            "Ġ15": 1320,
            "çĶ±": 1321,
            "isa": 1322,
            "we": 1323,
            "ĠFr": 1324,
            "eth": 1325,
            "æĪĸ": 1326,
            "ga": 1327,
            "ï¼Ľ": 1328,
            "aire": 1329,
            "Ġpo": 1330,
            "Ġ//": 1331,
            "Ġwill": 1332,
            "Ãºn": 1333,
            "å£": 1334,
            "Ġson": 1335,
            "ade": 1336,
            "ER": 1337,
            "æŁ": 1338,
            "orm": 1339,
            "AR": 1340,
            "inh": 1341,
            "èī": 1342,
            "val": 1343,
            "æį": 1344,
            "Ġfo": 1345,
            "The": 1346,
            "çµ": 1347,
            "aria": 1348,
            "put": 1349,
            "oy": 1350,
            "å»º": 1351,
            "16": 1352,
            "...Ċ": 1353,
            "è£": 1354,
            "Th": 1355,
            "ally": 1356,
            "aus": 1357,
            "å¤ĸ": 1358,
            "åħ¥": 1359,
            "err": 1360,
            "åĪ¶": 1361,
            "ĠLe": 1362,
            "ikan": 1363,
            "åĮĸ": 1364,
            "Ġget": 1365,
            "ural": 1366,
            "æ¨": 1367,
            "ãģ": 1368,
            "'t": 1369,
            "ĠEn": 1370,
            "Ġcap": 1371,
            "Ã³n": 1372,
            "å¹³": 1373,
            "Ð¾": 1374,
            "è¶": 1375,
            "ĠX": 1376,
            "ts": 1377,
            "IN": 1378,
            "ven": 1379,
            "âĢĶ": 1380,
            "æľŁ": 1381,
            "Ðµ": 1382,
            "ĠAn": 1383,
            "Ġplus": 1384,
            "äºĽ": 1385,
            "ĠÂ·": 1386,
            "æĦı": 1387,
            "Ġup": 1388,
            "é»": 1389,
            "å¼Ģ": 1390,
            "ÉĻ": 1391,
            "Ġsec": 1392,
            "uan": 1393,
            "åįģ": 1394,
            "æŃ£": 1395,
            "gan": 1396,
            "æľº": 1397,
            "å®ī": 1398,
            "æĸ¼": 1399,
            "iment": 1400,
            "ys": 1401,
            "iew": 1402,
            "æģ": 1403,
            "ise": 1404,
            "åķ": 1405,
            "ç»ı": 1406,
            "Ġpod": 1407,
            "ä½¿": 1408,
            "gun": 1409,
            "its": 1410,
            "ä½Ĩ": 1411,
            "!Ċ": 1412,
            "ç¥": 1413,
            "Ġperson": 1414,
            "cc": 1415,
            "éŁ³": 1416,
            "Ġcar": 1417,
            "bo": 1418,
            "ory": 1419,
            "äºĮ": 1420,
            "ä½į": 1421,
            "ä»£": 1422,
            "åº¦": 1423,
            "ista": 1424,
            "20": 1425,
            "30": 1426,
            "Ġarr": 1427,
            "''": 1428,
            "ew": 1429,
            "Ġtemp": 1430,
            "ude": 1431,
            "angan": 1432,
            "set": 1433,
            "åİ»": 1434,
            "Ch": 1435,
            "ç±": 1436,
            "å¹¶": 1437,
            "åįĹ": 1438,
            "ull": 1439,
            "ros": 1440,
            "æĺİ": 1441,
            "ument": 1442,
            "na": 1443,
            "sa": 1444,
            "ç³": 1445,
            "ç¾İ": 1446,
            "Ġni": 1447,
            "Â»": 1448,
            "ema": 1449,
            "itat": 1450,
            "Ġma": 1451,
            "ock": 1452,
            "ical": 1453,
            "çİ°": 1454,
            "plic": 1455,
            "éĤ£": 1456,
            "é©": 1457,
            "ä½ĵ": 1458,
            "urr": 1459,
            "ize": 1460,
            "aut": 1461,
            "14": 1462,
            "ĠâĢĵ": 1463,
            "æĻĤ": 1464,
            "Ġpass": 1465,
            "å¿ĥ": 1466,
            "çī©": 1467,
            "ille": 1468,
            "è»": 1469,
            "èĲ": 1470,
            "ĠCon": 1471,
            "ãĦ": 1472,
            "adas": 1473,
            "éł": 1474,
            "ten": 1475,
            "Ð¸": 1476,
            "ese": 1477,
            "æ¬¡": 1478,
            "ible": 1479,
            "Ġba": 1480,
            "iar": 1481,
            "é£": 1482,
            "istr": 1483,
            "ima": 1484,
            "å¢": 1485,
            "çĽ¸": 1486,
            "yst": 1487,
            "ç«ĭ": 1488,
            "ä¿Ŀ": 1489,
            "Ġpen": 1490,
            "elle": 1491,
            "ĠSt": 1492,
            "ivers": 1493,
            "her": 1494,
            "ays": 1495,
            "åĢĭ": 1496,
            "èĻ": 1497,
            "ini": 1498,
            "cul": 1499,
            "åŁº": 1500,
            "ino": 1501,
            "è³": 1502,
            "Ġpublic": 1503,
            "atan": 1504,
            "çĦ¶": 1505,
            "Ġ20": 1506,
            "ĠZ": 1507,
            "ose": 1508,
            "13": 1509,
            "ants": 1510,
            "Ŀi": 1511,
            "oa": 1512,
            "ales": 1513,
            "åĮº": 1514,
            ".Ġ(": 1515,
            "Ġmon": 1516,
            "ink": 1517,
            "ï¼Ł": 1518,
            "str": 1519,
            "PL": 1520,
            "ĠPar": 1521,
            "ĠPr": 1522,
            "å¥³": 1523,
            "anh": 1524,
            "åĸ": 1525,
            "å±ķ": 1526,
            "encia": 1527,
            "une": 1528,
            "cre": 1529,
            "ict": 1530,
            "17": 1531,
            "éķ¿": 1532,
            "èµ·": 1533,
            "Ġu": 1534,
            "eta": 1535,
            "ior": 1536,
            "çĽ®": 1537,
            "ç¦": 1538,
            "éĩĳ": 1539,
            "å¸Ĥ": 1540,
            "gu": 1541,
            "ike": 1542,
            "ĠAnd": 1543,
            "iro": 1544,
            "æķĻ": 1545,
            "èĩ³": 1546,
            "oll": 1547,
            "als": 1548,
            "Ġ#": 1549,
            "iu": 1550,
            "da": 1551,
            "50": 1552,
            "èģĶ": 1553,
            "ĠPro": 1554,
            "Ġ@": 1555,
            "ÑĤ": 1556,
            "ĠMar": 1557,
            "Ġtu": 1558,
            "åħĭ": 1559,
            "ĠInd": 1560,
            "éĹ´": 1561,
            "èŃ": 1562,
            "Ġ;": 1563,
            "éľ": 1564,
            "ey": 1565,
            "zen": 1566,
            "Ġclass": 1567,
            "Ġone": 1568,
            "ç¶": 1569,
            "åĨħ": 1570,
            "app": 1571,
            "éĢĻ": 1572,
            "PC": 1573,
            "Ġresult": 1574,
            "cept": 1575,
            "Ġbo": 1576,
            "ĠdâĢĻ": 1577,
            "Ġ14": 1578,
            "play": 1579,
            "this": 1580,
            "æĥħ": 1581,
            "sh": 1582,
            "æµ·": 1583,
            "ext": 1584,
            "Ġmo": 1585,
            "asa": 1586,
            "tern": 1587,
            "ator": 1588,
            "å§Ķ": 1589,
            "æ®": 1590,
            "ied": 1591,
            "isi": 1592,
            "è¯´": 1593,
            "yle": 1594,
            "Ġyour": 1595,
            "ther": 1596,
            "AT": 1597,
            "Ġ16": 1598,
            "Ġte": 1599,
            "row": 1600,
            "èĬ": 1601,
            "jo": 1602,
            "ä¾Ĩ": 1603,
            "ĠâĢĺ": 1604,
            "å°Ĩ": 1605,
            "Ġstr": 1606,
            "ton": 1607,
            "mes": 1608,
            "å¼ı": 1609,
            "Ġvol": 1610,
            "Ġ199": 1611,
            "duc": 1612,
            "Ġ17": 1613,
            "Ġmy": 1614,
            "-2": 1615,
            "Ġ_": 1616,
            "å¾Į": 1617,
            "itar": 1618,
            "ĠAs": 1619,
            "æł¼": 1620,
            "çģ": 1621,
            "æľĥ": 1622,
            "ON": 1623,
            "ĠDe": 1624,
            "emos": 1625,
            "ador": 1626,
            "ech": 1627,
            "Ġ--": 1628,
            "å®ŀ": 1629,
            "éħ": 1630,
            "æĭī": 1631,
            "own": 1632,
            "ç»Ħ": 1633,
            "Ġten": 1634,
            "æ¯Ķ": 1635,
            "ÃŃn": 1636,
            "br": 1637,
            "æŀľ": 1638,
            "çľĭ": 1639,
            "ress": 1640,
            "Ġ13": 1641,
            "ä¸ļ": 1642,
            "Ġmay": 1643,
            "ç³»": 1644,
            "tain": 1645,
            "ild": 1646,
            "è·¯": 1647,
            "å½ĵ": 1648,
            "be": 1649,
            "Ìģ": 1650,
            "dis": 1651,
            "çŁ¥": 1652,
            "ä¸ĸ": 1653,
            "Ãłi": 1654,
            "Ġop": 1655,
            "Al": 1656,
            "eko": 1657,
            "col": 1658,
            "Ġthere": 1659,
            "roup": 1660,
            "____": 1661,
            "199": 1662,
            "Ġpa": 1663,
            "çı": 1664,
            "gram": 1665,
            "åĲĦ": 1666,
            "ä¸Ģä¸ª": 1667,
            "çĿ": 1668,
            "æ°´": 1669,
            "çł": 1670,
            "endo": 1671,
            "å¾·": 1672,
            "hi": 1673,
            "è¿ĺ": 1674,
            "rit": 1675,
            "tp": 1676,
            "Ġ...": 1677,
            "orn": 1678,
            "ç¨ĭ": 1679,
            "wo": 1680,
            "æĿĳ": 1681,
            "ba": 1682,
            "ĠQu": 1683,
            "AN": 1684,
            "Ġkm": 1685,
            "ures": 1686,
            "å¸¸": 1687,
            "åºĶ": 1688,
            "æĪĳä»¬": 1689,
            "ick": 1690,
            "äºļ": 1691,
            "iko": 1692,
            "ria": 1693,
            "æ¼": 1694,
            "text": 1695,
            "Ãłng": 1696,
            "Ġimport": 1697,
            "æ¶": 1698,
            "ette": 1699,
            "åı¯ä»¥": 1700,
            "éĹ®": 1701,
            "ues": 1702,
            "ç¼": 1703,
            "æº": 1704,
            "ear": 1705,
            "ç®¡": 1706,
            "åı£": 1707,
            "Ð½": 1708,
            "Ġbar": 1709,
            "ean": 1710,
            "ĠAm": 1711,
            "å·²": 1712,
            "ä¹Ī": 1713,
            "æ·": 1714,
            "æķ°": 1715,
            "ates": 1716,
            "ano": 1717,
            "aw": 1718,
            "åĬ©": 1719,
            "ID": 1720,
            "ç§į": 1721,
            "crip": 1722,
            "St": 1723,
            "ES": 1724,
            "fo": 1725,
            "Ġwork": 1726,
            "Ġreal": 1727,
            "atal": 1728,
            "Ġany": 1729,
            "leg": 1730,
            "25": 1731,
            "åĬ¡": 1732,
            "dit": 1733,
            "ative": 1734,
            "æĵ": 1735,
            "tu": 1736,
            "erv": 1737,
            "Con": 1738,
            "-se": 1739,
            "åħ±": 1740,
            "ield": 1741,
            "åİŁ": 1742,
            "uen": 1743,
            "å±±": 1744,
            "å¾Ī": 1745,
            "har": 1746,
            "Ġbl": 1747,
            "æ²¡": 1748,
            "erg": 1749,
            "é¢ĺ": 1750,
            "ater": 1751,
            "let": 1752,
            "ĠEst": 1753,
            "ree": 1754,
            "ä¿¡": 1755,
            "ato": 1756,
            "Ġuse": 1757,
            "Ġnum": 1758,
            "lect": 1759,
            "pa": 1760,
            "åı°": 1761,
            "ange": 1762,
            "çĹ": 1763,
            "ä»¶": 1764,
            "èĳ": 1765,
            "çº¦": 1766,
            "åŃ¸": 1767,
            "Ġdef": 1768,
            "åıĹ": 1769,
            "éĿŀ": 1770,
            "ÑĢ": 1771,
            "ç¤¾": 1772,
            "A:": 1773,
            "åĲĳ": 1774,
            "ider": 1775,
            "è²": 1776,
            "uct": 1777,
            "che": 1778,
            "ank": 1779,
            "èİ": 1780,
            "å°Ķ": 1781,
            "Ñģ": 1782,
            "Ġ11": 1783,
            "ustr": 1784,
            "åıª": 1785,
            "Ġdata": 1786,
            "æīĭ": 1787,
            "ades": 1788,
            "ĠÂ»": 1789,
            "ç§ĳ": 1790,
            "irst": 1791,
            "ense": 1792,
            "Ġbr": 1793,
            "/200": 1794,
            "li": 1795,
            "åĨ³": 1796,
            "èį": 1797,
            "è§£": 1798,
            "pert": 1799,
            "Ġfunction": 1800,
            "åºľ": 1801,
            "24": 1802,
            "æ¡Ī": 1803,
            "åĳĬ": 1804,
            "Ã¨n": 1805,
            "Un": 1806,
            "af": 1807,
            "æĬ¥": 1808,
            "Ġconst": 1809,
            "æĮģ": 1810,
            "è¯¥": 1811,
            "ote": 1812,
            "ires": 1813,
            "ateg": 1814,
            "Ġrest": 1815,
            "äº¤": 1816,
            "æĥ³": 1817,
            "ane": 1818,
            "Ġ2021": 1819,
            "ĠRe": 1820,
            "æĽ´": 1821,
            "æİ¥": 1822,
            "una": 1823,
            "vol": 1824,
            "Ġwere": 1825,
            "ani": 1826,
            "idos": 1827,
            "ils": 1828,
            "Ġins": 1829,
            "ivo": 1830,
            "éĩı": 1831,
            "ource": 1832,
            "bl": 1833,
            "æĿĥ": 1834,
            "å·¥ä½ľ": 1835,
            "ages": 1836,
            "ole": 1837,
            "ĠIt": 1838,
            "ç¡": 1839,
            "ings": 1840,
            "åĽŀ": 1841,
            "']": 1842,
            "Ġ30": 1843,
            "Ġmore": 1844,
            "ystem": 1845,
            "Ġvi": 1846,
            "ati": 1847,
            "Ġsin": 1848,
            "åħĥ": 1849,
            "çĸ": 1850,
            "anto": 1851,
            "ror": 1852,
            "Tr": 1853,
            "EN": 1854,
            "èĪĩ": 1855,
            "åĪ«": 1856,
            "iki": 1857,
            "itt": 1858,
            "ces": 1859,
            "cript": 1860,
            "æ´»": 1861,
            "pon": 1862,
            "Ġhi": 1863,
            "åĽ½å®¶": 1864,
            "åı¸": 1865,
            "ash": 1866,
            "ĠâĪ": 1867,
            "aka": 1868,
            "atch": 1869,
            "led": 1870,
            "çĤ¹": 1871,
            "ely": 1872,
            "èº": 1873,
            "æĮĩ": 1874,
            "Ġfa": 1875,
            "èµĦ": 1876,
            "ours": 1877,
            "å®ĺ": 1878,
            "åħĪ": 1879,
            "åĽĽ": 1880,
            "ĠPh": 1881,
            "....": 1882,
            "Ġfl": 1883,
            "vern": 1884,
            "åıĸ": 1885,
            "cho": 1886,
            "32": 1887,
            "å½¢": 1888,
            "Ex": 1889,
            "Ġwhen": 1890,
            "reg": 1891,
            "Ġdev": 1892,
            "æ²»": 1893,
            "Ġlike": 1894,
            "aran": 1895,
            "åĤ": 1896,
            "ital": 1897,
            "unic": 1898,
            "Ġwould": 1899,
            "ren": 1900,
            "è®¾": 1901,
            "æ¥": 1902,
            "anda": 1903,
            "Ġthey": 1904,
            "iri": 1905,
            "ye": 1906,
            "ner": 1907,
            "Ġmet": 1908,
            "arc": 1909,
            "##": 1910,
            "name": 1911,
            "Com": 1912,
            "è®¡": 1913,
            "style": 1914,
            "uel": 1915,
            "Ġ25": 1916,
            "old": 1917,
            "ĠEs": 1918,
            "gal": 1919,
            "Ġfe": 1920,
            "fl": 1921,
            "Ġsome": 1922,
            "éĻ¢": 1923,
            "ario": 1924,
            "âĢĵ": 1925,
            "tes": 1926,
            "å¡": 1927,
            "åĦ": 1928,
            "åĮħ": 1929,
            "-l": 1930,
            "å·ŀ": 1931,
            "Ã¡ng": 1932,
            "://": 1933,
            "æ¸¯": 1934,
            "ula": 1935,
            "çĶµ": 1936,
            "22": 1937,
            "Ġsc": 1938,
            "Pro": 1939,
            "gi": 1940,
            "Ġbet": 1941,
            "çİĭ": 1942,
            "var": 1943,
            "ld": 1944,
            "jet": 1945,
            "Ġjust": 1946,
            "aga": 1947,
            "æ¢": 1948,
            "Ar": 1949,
            "å£«": 1950,
            "ĠIl": 1951,
            "/0": 1952,
            "ational": 1953,
            "å®ĥ": 1954,
            "po": 1955,
            "åĢĳ": 1956,
            "Ġother": 1957,
            "hor": 1958,
            "ler": 1959,
            "atic": 1960,
            "80": 1961,
            "é¡¹": 1962,
            "ea": 1963,
            "Ġintern": 1964,
            "åģļ": 1965,
            "Ġshould": 1966,
            "Ġlib": 1967,
            "sel": 1968,
            "Ã¼": 1969,
            "Ġ24": 1970,
            "é©¬": 1971,
            "display": 1972,
            "Ġneed": 1973,
            "å¥¹": 1974,
            "oh": 1975,
            "æłĩ": 1976,
            "å¸ĥ": 1977,
            "eck": 1978,
            "Ãło": 1979,
            "ç²": 1980,
            "Ġsent": 1981,
            "ami": 1982,
            "äº§": 1983,
            "uar": 1984,
            "éĻħ": 1985,
            "åĨĽ": 1986,
            "Ġalso": 1987,
            "Ġ23": 1988,
            "by": 1989,
            "ĠPer": 1990,
            "èº«": 1991,
            "æĶ¹": 1992,
            "Ġover": 1993,
            "ene": 1994,
            "********": 1995,
            "æĿ¡": 1996,
            "åł±": 1997,
            "ender": 1998,
            "ww": 1999,
            "ä¹¦": 2000,
            "ection": 2001,
            "é¦Ļ": 2002,
            "ti": 2003,
            "Ġsign": 2004,
            "II": 2005,
            "ahan": 2006,
            "Ġtime": 2007,
            "æ»": 2008,
            "åĵģ": 2009,
            "ger": 2010,
            "ann": 2011,
            "Ġadd": 2012,
            "Ġend": 2013,
            "OR": 2014,
            "ismo": 2015,
            "uj": 2016,
            "60": 2017,
            "IB": 2018,
            "tim": 2019,
            "èĦ": 2020,
            "ici": 2021,
            "èĭ±": 2022,
            "ao": 2023,
            "Ġ==": 2024,
            "ÉĶ": 2025,
            "Ġsim": 2026,
            "å²": 2027,
            "23": 2028,
            "It": 2029,
            "éĹ®é¢ĺ": 2030,
            "ç·": 2031,
            "æĶ¯": 2032,
            "yo": 2033,
            "çĲĥ": 2034,
            "å¤Ħ": 2035,
            "undo": 2036,
            "IT": 2037,
            "Ġ2020": 2038,
            "Ġdoc": 2039,
            "å°ĳ": 2040,
            "ä¾Ľ": 2041,
            "Re": 2042,
            "ä»İ": 2043,
            "red": 2044,
            "apa": 2045,
            "è¨Ģ": 2046,
            "ĠSe": 2047,
            "ĠAd": 2048,
            "40": 2049,
            "aux": 2050,
            "çķĮ": 2051,
            "Ġid": 2052,
            "['": 2053,
            "ron": 2054,
            "ibil": 2055,
            "å§Ķåĳĺ": 2056,
            "ÌĢ": 2057,
            "Ġwhat": 2058,
            "oto": 2059,
            "å½±": 2060,
            "å¤ª": 2061,
            "aba": 2062,
            "orte": 2063,
            "è§Ħ": 2064,
            "ago": 2065,
            "leh": 2066,
            "çĽ´": 2067,
            "aron": 2068,
            "ms": 2069,
            "ä½ķ": 2070,
            "æ£": 2071,
            "Ã©l": 2072,
            "æĹł": 2073,
            "yn": 2074,
            "ule": 2075,
            "iren": 2076,
            "pect": 2077,
            "åĥ": 2078,
            "ST": 2079,
            "èı": 2080,
            "æ³¨": 2081,
            "api": 2082,
            "å·´": 2083,
            "Ġfinal": 2084,
            "Ġ%": 2085,
            "Ġabout": 2086,
            "ãĤ": 2087,
            "æį®": 2088,
            "åĩĨ": 2089,
            "çĻ¼": 2090,
            "ĠPl": 2091,
            "çĥ": 2092,
            "====": 2093,
            "vers": 2094,
            "ca": 2095,
            "ĠGr": 2096,
            "iter": 2097,
            "Le": 2098,
            "èī²": 2099,
            "els": 2100,
            "ci": 2101,
            "æ©": 2102,
            "Ad": 2103,
            "æīĵ": 2104,
            "Ġself": 2105,
            "umb": 2106,
            "aph": 2107,
            "iga": 2108,
            "åŁİ": 2109,
            "éĶ": 2110,
            "å¨": 2111,
            "Ġprogram": 2112,
            "Name": 2113,
            "ola": 2114,
            "As": 2115,
            "oria": 2116,
            "ili": 2117,
            "ml": 2118,
            "ä»Ģ": 2119,
            "-s": 2120,
            "dex": 2121,
            "çĩ": 2122,
            "åĪĹ": 2123,
            "éľĢ": 2124,
            "Ġinto": 2125,
            "este": 2126,
            "inta": 2127,
            "27": 2128,
            "åĻ": 2129,
            "ald": 2130,
            "add": 2131,
            "èĮ": 2132,
            "æĶ¿åºľ": 2133,
            "äºĶ": 2134,
            "read": 2135,
            "35": 2136,
            "åı·": 2137,
            "ä¸¤": 2138,
            "AL": 2139,
            "-m": 2140,
            "åıĪ": 2141,
            "ij": 2142,
            "Ġsocial": 2143,
            "ä¸ľ": 2144,
            "è«": 2145,
            "Ġits": 2146,
            "aja": 2147,
            "æĶ¾": 2148,
            "BB": 2149,
            "Ġbeen": 2150,
            "zi": 2151,
            "Es": 2152,
            "è¯Ń": 2153,
            "åŀ": 2154,
            "anj": 2155,
            "ç»Ł": 2156,
            "å§Ķåĳĺä¼ļ": 2157,
            "åįĢ": 2158,
            "Ġing": 2159,
            "Ġonly": 2160,
            "pend": 2161,
            "æł·": 2162,
            "Ġtheir": 2163,
            "Ġher": 2164,
            "]]": 2165,
            "ç¸": 2166,
            "Ġthen": 2167,
            "æĪĺ": 2168,
            "ission": 2169,
            "èªŀ": 2170,
            "éĺ¿": 2171,
            "é¦ĸ": 2172,
            "Ġden": 2173,
            "of": 2174,
            "Ġlong": 2175,
            "æŁ¥": 2176,
            "Ġder": 2177,
            "æ±Ĥ": 2178,
            "çĭ": 2179,
            "rem": 2180,
            "oci": 2181,
            "ll": 2182,
            "uta": 2183,
            "De": 2184,
            "Ġpoint": 2185,
            "edia": 2186,
            "å°¼": 2187,
            "åĨį": 2188,
            "ature": 2189,
            "Ġhad": 2190,
            "Ġhis": 2191,
            "ines": 2192,
            "eter": 2193,
            "æĬĬ": 2194,
            "-19": 2195,
            "åĶ": 2196,
            "è±": 2197,
            "å§ĭ": 2198,
            "ç¤º": 2199,
            "Ġvalue": 2200,
            "fe": 2201,
            "kat": 2202,
            "26": 2203,
            "Ãī": 2204,
            "oth": 2205,
            "String": 2206,
            "åıį": 2207,
            "_t": 2208,
            "ĠThis": 2209,
            "45": 2210,
            "vis": 2211,
            "éĴ": 2212,
            "28": 2213,
            "ä¸ŃåĽ½": 2214,
            "ĠNo": 2215,
            "itas": 2216,
            "Ġusing": 2217,
            "Ġ*/": 2218,
            "lex": 2219,
            "iva": 2220,
            "éº": 2221,
            "ĠNg": 2222,
            "import": 2223,
            "ubl": 2224,
            "æ¹": 2225,
            "ä¼ļè®®": 2226,
            "eri": 2227,
            "ics": 2228,
            "33": 2229,
            "gap": 2230,
            "idas": 2231,
            "Ġfirst": 2232,
            "use": 2233,
            "ĠComm": 2234,
            "ç¿": 2235,
            "ry": 2236,
            "Ġlog": 2237,
            "Ġart": 2238,
            "igh": 2239,
            "-b": 2240,
            "press": 2241,
            "29": 2242,
            "è®¤": 2243,
            "æĶ¶": 2244,
            "quer": 2245,
            "éĹ¨": 2246,
            "iste": 2247,
            "inal": 2248,
            "æµģ": 2249,
            "Id": 2250,
            "Ġfile": 2251,
            "Ġtest": 2252,
            "ç»ĵ": 2253,
            "åķĨ": 2254,
            "elles": 2255,
            "çĬ": 2256,
            "iak": 2257,
            "ĠIs": 2258,
            "æĴ": 2259,
            "Ġwant": 2260,
            "xim": 2261,
            "åĽ½éĻħ": 2262,
            "è½¦": 2263,
            "oss": 2264,
            "Ġname": 2265,
            "ke": 2266,
            "SE": 2267,
            "å°į": 2268,
            "aur": 2269,
            "je": 2270,
            "Ġobject": 2271,
            "Ġthem": 2272,
            "land": 2273,
            "è°ĥ": 2274,
            "èģ¯": 2275,
            "'m": 2276,
            "wan": 2277,
            "hat": 2278,
            "etan": 2279,
            "ets": 2280,
            "jar": 2281,
            "çĿĢ": 2282,
            "----------------": 2283,
            "yp": 2284,
            "ĠGo": 2285,
            "Ġnon": 2286,
            "ï¼ģ": 2287,
            "Ġdom": 2288,
            "Ġtwo": 2289,
            "æ²¡æľī": 2290,
            "ç±³": 2291,
            "arena": 2292,
            "21": 2293,
            "æľį": 2294,
            "irm": 2295,
            "ĠEx": 2296,
            "opt": 2297,
            "Ġtype": 2298,
            "æľª": 2299,
            "åıĳå±ķ": 2300,
            "ç©º": 2301,
            "vi": 2302,
            "esar": 2303,
            "fa": 2304,
            "éģİ": 2305,
            "åľº": 2306,
            "ques": 2307,
            "ä»Ĭ": 2308,
            "ating": 2309,
            "ĠCar": 2310,
            ";;": 2311,
            "èģĶåĲĪ": 2312,
            "_s": 2313,
            "çľŁ": 2314,
            "-1": 2315,
            "ames": 2316,
            "Q:": 2317,
            "imes": 2318,
            "Ġhow": 2319,
            "RE": 2320,
            "mp": 2321,
            "èªª": 2322,
            "oug": 2323,
            "èĢģ": 2324,
            "çĻ½": 2325,
            "ä»¥åıĬ": 2326,
            "ĠSp": 2327,
            "uko": 2328,
            "Ġ26": 2329,
            "æ¯ı": 2330,
            "æħ": 2331,
            "åį³": 2332,
            "æĢ»": 2333,
            "çħ": 2334,
            "self": 2335,
            "ric": 2336,
            "return": 2337,
            "èĳĹ": 2338,
            "åĻ¨": 2339,
            "å·±": 2340,
            "ows": 2341,
            "70": 2342,
            "FF": 2343,
            "0000": 2344,
            "å¼º": 2345,
            "ç¢": 2346,
            "æł¹": 2347,
            "è»į": 2348,
            "fore": 2349,
            "Ġ2019": 2350,
            "mas": 2351,
            "55": 2352,
            "éĢī": 2353,
            "An": 2354,
            "å¿ħ": 2355,
            "lar": 2356,
            "ume": 2357,
            "nes": 2358,
            "ump": 2359,
            "ector": 2360,
            "Ġ21": 2361,
            "ugh": 2362,
            "éĽĨ": 2363,
            "åĳ½": 2364,
            "Ġgu": 2365,
            "igo": 2366,
            "-d": 2367,
            "æĤ": 2368,
            "æĸ½": 2369,
            "LE": 2370,
            "son": 2371,
            "oir": 2372,
            "è¼": 2373,
            "éĸĭ": 2374,
            "Ġ28": 2375,
            "æĦŁ": 2376,
            "IC": 2377,
            "Ġport": 2378,
            "por": 2379,
            "Ġmain": 2380,
            "æ¸ħ": 2381,
            "64": 2382,
            "ĠOr": 2383,
            "æŀĹ": 2384,
            "åĽ¢": 2385,
            "è©±": 2386,
            "é¦Ļæ¸¯": 2387,
            "Ġgl": 2388,
            ")Ġ(": 2389,
            "No": 2390,
            "Ġhand": 2391,
            "ader": 2392,
            "())": 2393,
            "éĵ": 2394,
            "hen": 2395,
            "Ġ>": 2396,
            "39": 2397,
            "è¾¾": 2398,
            "ount": 2399,
            "rom": 2400,
            "Ġ100": 2401,
            "æĿ±": 2402,
            "-0": 2403,
            "Ġthan": 2404,
            "ral": 2405,
            "Ġmoment": 2406,
            "âĢ¦": 2407,
            "ves": 2408,
            "ä¸Ķ": 2409,
            "Äģ": 2410,
            "AC": 2411,
            "ze": 2412,
            "osa": 2413,
            "éª": 2414,
            "iver": 2415,
            "Ġ50": 2416,
            "ãĥ": 2417,
            "Ġdr": 2418,
            "æºĲ": 2419,
            "ĠLes": 2420,
            "åħ¶ä»ĸ": 2421,
            "éĢł": 2422,
            "ï¼ļãĢĮ": 2423,
            "Ġmi": 2424,
            "lah": 2425,
            "List": 2426,
            "cal": 2427,
            "eu": 2428,
            "ä¹ī": 2429,
            "Ġelse": 2430,
            "å®Į": 2431,
            "OM": 2432,
            "ki": 2433,
            "Ġdist": 2434,
            "Ġcode": 2435,
            "-t": 2436,
            "ail": 2437,
            "org": 2438,
            "round": 2439,
            "uss": 2440,
            "åįı": 2441,
            "uro": 2442,
            "éķ·": 2443,
            "ample": 2444,
            "div": 2445,
            "ç»ĩ": 2446,
            "han": 2447,
            "mon": 2448,
            "78": 2449,
            "åħ·": 2450,
            "include": 2451,
            "è®°": 2452,
            "çĹħ": 2453,
            "\":": 2454,
            "ks": 2455,
            "men": 2456,
            "uat": 2457,
            "Val": 2458,
            "Ġprocess": 2459,
            "å±Ģ": 2460,
            "ĠPol": 2461,
            "Ġ2018": 2462,
            "Ġcase": 2463,
            "Ġknow": 2464,
            "right": 2465,
            "Ġpop": 2466,
            "kin": 2467,
            "åĭķ": 2468,
            "å°ĩ": 2469,
            "èħ": 2470,
            "éĻ¤": 2471,
            "Ð»": 2472,
            "æĬĢ": 2473,
            "AM": 2474,
            "zo": 2475,
            "enta": 2476,
            "Ġed": 2477,
            "ä»ĸä»¬": 2478,
            "æĭ¬": 2479,
            "aix": 2480,
            "ç»Ļ": 2481,
            "é«Ķ": 2482,
            "èĩªå·±": 2483,
            "Ġ22": 2484,
            "ices": 2485,
            "è»Ĭ": 2486,
            "Ġ||": 2487,
            "èĹ": 2488,
            "å¤«": 2489,
            "////": 2490,
            "åŀĭ": 2491,
            "ush": 2492,
            "ception": 2493,
            "ç¡®": 2494,
            "Ã¡o": 2495,
            "è¿Ĳ": 2496,
            "uda": 2497,
            "rec": 2498,
            "log": 2499,
            "mb": 2500,
            "data": 2501,
            "los": 2502,
            "Ġright": 2503,
            "æŃ»": 2504,
            "è§ģ": 2505,
            "enda": 2506,
            "vert": 2507,
            "çĪ¾": 2508,
            "æļ": 2509,
            "99": 2510,
            "æıĲä¾Ľ": 2511,
            "udi": 2512,
            "ç«Ļ": 2513,
            "ä¾¿": 2514,
            "æķ¸": 2515,
            "ĠSo": 2516,
            "line": 2517,
            "é¦¬": 2518,
            "Ã¤": 2519,
            "çķ¶": 2520,
            "ç¥ŀ": 2521,
            "åĦ¿": 2522,
            "aram": 2523,
            "ç»Ħç»ĩ": 2524,
            "ars": 2525,
            ".,": 2526,
            "ä½¿çĶ¨": 2527,
            "Ġlu": 2528,
            "38": 2529,
            "ĠPres": 2530,
            "Ġwhere": 2531,
            "des": 2532,
            "arn": 2533,
            "çľģ": 2534,
            "åŁŁ": 2535,
            "AS": 2536,
            "åįķ": 2537,
            "36": 2538,
            "æŀĦ": 2539,
            "Ġdoes": 2540,
            "ĠSh": 2541,
            "åĮħæĭ¬": 2542,
            "åĪĻ": 2543,
            "çłĶ": 2544,
            "Ġhere": 2545,
            "agi": 2546,
            "Ġ..": 2547,
            "æĺŁ": 2548,
            "Ġthese": 2549,
            "åħī": 2550,
            "Ġmol": 2551,
            "åıĤ": 2552,
            "alu": 2553,
            "Ġ27": 2554,
            "To": 2555,
            "ister": 2556,
            "è¿Ľè¡Į": 2557,
            "æŃ¦": 2558,
            "æķĪ": 2559,
            "Ġway": 2560,
            "ä¸ĵ": 2561,
            "±c": 2562,
            "Ġdiv": 2563,
            "ä¸¦": 2564,
            "Ġdid": 2565,
            "44": 2566,
            "æ®µ": 2567,
            "é¢Ĩ": 2568,
            "uma": 2569,
            "Ġgroup": 2570,
            "Ġvan": 2571,
            "è®º": 2572,
            "ä»Ģä¹Ī": 2573,
            "ĨĴ": 2574,
            "ç®Ĺ": 2575,
            "å¢ŀ": 2576,
            "çį": 2577,
            "Ġafter": 2578,
            "Ġlocal": 2579,
            "è¿ĳ": 2580,
            "Se": 2581,
            "Ġlist": 2582,
            "arga": 2583,
            "æ´²": 2584,
            "uit": 2585,
            "lab": 2586,
            "ĠBr": 2587,
            "adr": 2588,
            "Cl": 2589,
            "ĠæĪĳ": 2590,
            "çº§": 2591,
            "Type": 2592,
            "éĺŁ": 2593,
            "ĠTer": 2594,
            "ark": 2595,
            "åĨµ": 2596,
            "vir": 2597,
            "37": 2598,
            "date": 2599,
            "å®¹": 2600,
            "æ©Ł": 2601,
            "ements": 2602,
            "åį¡": 2603,
            "åĬŀ": 2604,
            "éĽ»": 2605,
            "icos": 2606,
            "_c": 2607,
            "ĠAg": 2608,
            "éĢ²": 2609,
            "very": 2610,
            "ĠCl": 2611,
            "Ġapp": 2612,
            "æ±ī": 2613,
            "æĸĻ": 2614,
            "æĬ¥åĳĬ": 2615,
            "çª": 2616,
            "ç±»": 2617,
            "åı¯èĥ½": 2618,
            "ities": 2619,
            "ower": 2620,
            "Ġused": 2621,
            "48": 2622,
            "Ġarray": 2623,
            "åıĺ": 2624,
            "public": 2625,
            "ç¶ĵ": 2626,
            "Ġtrue": 2627,
            "View": 2628,
            "æľ¯": 2629,
            "ĠOn": 2630,
            "orr": 2631,
            "alan": 2632,
            "atz": 2633,
            "çı¾": 2634,
            "uka": 2635,
            "mos": 2636,
            "fect": 2637,
            "uis": 2638,
            "Ġbus": 2639,
            "çļĦäºº": 2640,
            "Ġ29": 2641,
            "ĠDes": 2642,
            "action": 2643,
            "ĠNam": 2644,
            "ited": 2645,
            "arch": 2646,
            "atus": 2647,
            "eh": 2648,
            "Ġ]": 2649,
            "Ġsee": 2650,
            "é¾": 2651,
            "aks": 2652,
            "2:": 2653,
            "ç¯": 2654,
            "ty": 2655,
            "æŃ¥": 2656,
            "åħ¬åı¸": 2657,
            "çļĦä¸Ģ": 2658,
            "atur": 2659,
            "Ġmuch": 2660,
            "asan": 2661,
            "ç»Ń": 2662,
            "bar": 2663,
            "åħ§": 2664,
            "çº¿": 2665,
            "new": 2666,
            "75": 2667,
            "66": 2668,
            "æĸ¹éĿ¢": 2669,
            "ps": 2670,
            "tag": 2671,
            "ting": 2672,
            "Ġplan": 2673,
            "æīį": 2674,
            "param": 2675,
            "çµ±": 2676,
            "Ġcould": 2677,
            "ç»´": 2678,
            "å°±æĺ¯": 2679,
            "è¯·": 2680,
            "work": 2681,
            "oi": 2682,
            "æĹı": 2683,
            "umn": 2684,
            "n't": 2685,
            "çĦ¡": 2686,
            "Ġmethod": 2687,
            "Ġsuper": 2688,
            "Ġline": 2689,
            "Ġback": 2690,
            "ç¬¬ä¸Ģ": 2691,
            "ween": 2692,
            "34": 2693,
            "å¦Ĥæŀľ": 2694,
            "aman": 2695,
            "And": 2696,
            "Ġsame": 2697,
            "æ¼Ķ": 2698,
            "åŃĺ": 2699,
            "Data": 2700,
            "æĺĵ": 2701,
            "ĠCo": 2702,
            "å¤±": 2703,
            "Ġtotal": 2704,
            "[[": 2705,
            "aku": 2706,
            "uru": 2707,
            "ĠMin": 2708,
            "Ġcontrol": 2709,
            "ä»£è¡¨": 2710,
            "ĠIm": 2711,
            "æĭ¼": 2712,
            "æł¡": 2713,
            "ece": 2714,
            "Ġcall": 2715,
            "Ġsuch": 2716,
            "acc": 2717,
            "ĠFor": 2718,
            "iet": 2719,
            "serv": 2720,
            "åľŁ": 2721,
            "uten": 2722,
            "èģĶåĲĪåĽ½": 2723,
            "ful": 2724,
            "/201": 2725,
            "-p": 2726,
            "rist": 2727,
            "å¯¼": 2728,
            "mod": 2729,
            "view": 2730,
            "ois": 2731,
            "éľĢè¦ģ": 2732,
            "ila": 2733,
            "pp": 2734,
            "Ġnull": 2735,
            "IP": 2736,
            "éĸĵ": 2737,
            "88": 2738,
            "uv": 2739,
            "å¾Ģ": 2740,
            "ances": 2741,
            "Ġ2017": 2742,
            "çĻ¾": 2743,
            "ives": 2744,
            "å¢ĥ": 2745,
            "ying": 2746,
            "php": 2747,
            "å®¢": 2748,
            "æīĢæľī": 2749,
            "ni": 2750,
            "table": 2751,
            "eria": 2752,
            "orld": 2753,
            "ody": 2754,
            "anz": 2755,
            "Ġstring": 2756,
            "èĢĥ": 2757,
            "æĩ": 2758,
            "ç©¶": 2759,
            "ĠNew": 2760,
            "åı¤": 2761,
            "ä¸ĸçķĮ": 2762,
            "roid": 2763,
            "_p": 2764,
            "åı²": 2765,
            "/2": 2766,
            "inter": 2767,
            "èĬ±": 2768,
            "ç§°": 2769,
            "ĠâĪĴ": 2770,
            "\";": 2771,
            "æĽ¾": 2772,
            "Ob": 2773,
            "éŃ": 2774,
            "è®©": 2775,
            "è¿ĻäºĽ": 2776,
            "çĩŁ": 2777,
            "Est": 2778,
            "Ġmake": 2779,
            "èĺ": 2780,
            "mer": 2781,
            "IS": 2782,
            "_id": 2783,
            "car": 2784,
            "Qu": 2785,
            "erto": 2786,
            "Ġ2015": 2787,
            "âĢĺ": 2788,
            "ĠBar": 2789,
            "ĠGeneral": 2790,
            "Ñĥ": 2791,
            "Res": 2792,
            "ĠCol": 2793,
            "Ġwho": 2794,
            "http": 2795,
            "ä¾ĭ": 2796,
            "ete": 2797,
            "ites": 2798,
            "Ġoff": 2799,
            "èĤ²": 2800,
            "i-": 2801,
            "å¤į": 2802,
            "ogr": 2803,
            "UR": 2804,
            "file": 2805,
            "å¾ĭ": 2806,
            "ota": 2807,
            "ĠHe": 2808,
            "Ġbetween": 2809,
            "Ġvoid": 2810,
            "ç½ĳ": 2811,
            "Ġ40": 2812,
            "ĠĊ": 2813,
            "49": 2814,
            "ious": 2815,
            "anta": 2816,
            "åħŃ": 2817,
            "ences": 2818,
            "Ġsort": 2819,
            "AB": 2820,
            "Ġfollow": 2821,
            "çĵ": 2822,
            "åĬŁ": 2823,
            "class": 2824,
            "Ġnumber": 2825,
            "Ġlet": 2826,
            "eda": 2827,
            "ran": 2828,
            "ä¸įæĺ¯": 2829,
            "Ġhttp": 2830,
            "Ġchar": 2831,
            "ä»¤": 2832,
            "31": 2833,
            "65": 2834,
            "éĥ¨åĪĨ": 2835,
            "Ġunder": 2836,
            "è¯Ŀ": 2837,
            "æģ¯": 2838,
            "ĠWe": 2839,
            "çŁ³": 2840,
            "Ġfalse": 2841,
            "è¯ģ": 2842,
            "ides": 2843,
            "ables": 2844,
            "Ð²": 2845,
            "è§Ĩ": 2846,
            "æ²³": 2847,
            "Ġlook": 2848,
            "amu": 2849,
            "fig": 2850,
            "ulo": 2851,
            "çīĩ": 2852,
            "æĳ": 2853,
            "ctr": 2854,
            "ĠMan": 2855,
            "ç¤¾ä¼ļ": 2856,
            "idth": 2857,
            "ä½ı": 2858,
            "ĠMas": 2859,
            "Ġelement": 2860,
            "åĪĩ": 2861,
            "onn": 2862,
            "å¼ķ": 2863,
            "Set": 2864,
            "ç½Ĺ": 2865,
            "ople": 2866,
            "éĢļè¿ĩ": 2867,
            "Cont": 2868,
            "Ðº": 2869,
            "Ġsystem": 2870,
            "ments": 2871,
            "ipo": 2872,
            "ä¿®": 2873,
            "CT": 2874,
            "åĳ¨": 2875,
            "';": 2876,
            "Ġbi": 2877,
            "Ġrun": 2878,
            "You": 2879,
            "èĩ´": 2880,
            "Ġlab": 2881,
            "cent": 2882,
            "seg": 2883,
            "ç½®": 2884,
            "ĠPe": 2885,
            "æŃ¢": 2886,
            "udo": 2887,
            "illa": 2888,
            "åĲĹ": 2889,
            "å¿«": 2890,
            "æ´¾": 2891,
            "åĪĴ": 2892,
            "æľĿ": 2893,
            "åĢĻ": 2894,
            "Ġtext": 2895,
            "à¸": 2896,
            "æ¶Ī": 2897,
            "DE": 2898,
            "clar": 2899,
            "èµ°": 2900,
            "åħ©": 2901,
            "æĬ¤": 2902,
            "ãĢĳ": 2903,
            "Ġfunc": 2904,
            "ãĢĲ": 2905,
            "éĩĩ": 2906,
            "oko": 2907,
            "uir": 2908,
            "uch": 2909,
            "åĥı": 2910,
            "Ġred": 2911,
            "Col": 2912,
            "å©": 2913,
            "éĺ²": 2914,
            "Ġvar": 2915,
            "77": 2916,
            "On": 2917,
            "ward": 2918,
            "has": 2919,
            "Ġeach": 2920,
            "Ġmodel": 2921,
            "æĥħåĨµ": 2922,
            "Ġour": 2923,
            "ells": 2924,
            "Ġyear": 2925,
            "æĻ®": 2926,
            "He": 2927,
            "hir": 2928,
            "é¤": 2929,
            "ä¼ł": 2930,
            "ĠYou": 2931,
            "att": 2932,
            "æ¾": 2933,
            "æ±Ł": 2934,
            "æ¿": 2935,
            "Ġuser": 2936,
            "count": 2937,
            "æ°Ķ": 2938,
            "èĴ": 2939,
            "plication": 2940,
            "ĠPa": 2941,
            "ever": 2942,
            "åĵ¡": 2943,
            "âĪ": 2944,
            "85": 2945,
            "iles": 2946,
            "éĹľ": 2947,
            "çłĶç©¶": 2948,
            "gb": 2949,
            "Ġdocument": 2950,
            "åħ°": 2951,
            "Ġstart": 2952,
            "åħ³äºİ": 2953,
            "ç¹": 2954,
            "90": 2955,
            "uper": 2956,
            "æķ´": 2957,
            "å®¡": 2958,
            "Ġvery": 2959,
            "ban": 2960,
            "aan": 2961,
            "my": 2962,
            "æĭ¼éŁ³": 2963,
            "æĬķ": 2964,
            "ref": 2965,
            "çİĩ": 2966,
            "è¦ĭ": 2967,
            "æ¬¾": 2968,
            "9å¹´": 2969,
            "ĠSer": 2970,
            "Ġ2014": 2971,
            "iza": 2972,
            "key": 2973,
            "Ġsecond": 2974,
            "ĠIf": 2975,
            "1å¹´": 2976,
            "ĠAt": 2977,
            "OS": 2978,
            "çħ§": 2979,
            "UL": 2980,
            "value": 2981,
            "echn": 2982,
            "ET": 2983,
            ":00": 2984,
            "ä¸¾": 2985,
            "100": 2986,
            "ç®¡çĲĨ": 2987,
            "ook": 2988,
            "inda": 2989,
            "At": 2990,
            "Ġput": 2991,
            "ĠCor": 2992,
            "è´¨": 2993,
            "bu": 2994,
            "86": 2995,
            "äº¬": 2996,
            "é£Ł": 2997,
            "æİ¨": 2998,
            "Ġagain": 2999,
            "uri": 3000,
            "itle": 3001,
            "ugu": 3002,
            "è´¹": 3003,
            "Ġpage": 3004,
            "iti": 3005,
            "ĠEm": 3006,
            "ande": 3007,
            "æī§": 3008,
            "æĸ°åĮĹ": 3009,
            "å¤´": 3010,
            "47": 3011,
            "çĳ": 3012,
            "di": 3013,
            "-c": 3014,
            "çŁ¥éģĵ": 3015,
            "ango": 3016,
            "UN": 3017,
            "omp": 3018,
            "ä¼Ĭ": 3019,
            "imo": 3020,
            "mu": 3021,
            "éħį": 3022,
            "éłŃ": 3023,
            "æµİ": 3024,
            "Ġfind": 3025,
            "æĲ": 3026,
            "other": 3027,
            "osp": 3028,
            "è¶Ĭ": 3029,
            "but": 3030,
            "ugar": 3031,
            "ä¸»è¦ģ": 3032,
            "INE": 3033,
            "cer": 3034,
            "æľĽ": 3035,
            "ÑĮ": 3036,
            "åĺ": 3037,
            "Ġgeneral": 3038,
            "è¿Ļä¸ª": 3039,
            "Je": 3040,
            "alt": 3041,
            "rite": 3042,
            "ç¾ħ": 3043,
            "Ġnow": 3044,
            "itor": 3045,
            "ĠRep": 3046,
            "med": 3047,
            "ls": 3048,
            "Des": 3049,
            "Ġ2016": 3050,
            "ession": 3051,
            "Text": 3052,
            "Ġund": 3053,
            "Ġpost": 3054,
            "ED": 3055,
            "way": 3056,
            "å¸Į": 3057,
            "Ġsm": 3058,
            "ask": 3059,
            "user": 3060,
            "Ġquestion": 3061,
            "Ġsay": 3062,
            "è®¸": 3063,
            "onom": 3064,
            "Ñı": 3065,
            "AD": 3066,
            "ella": 3067,
            "Ġbecause": 3068,
            "ager": 3069,
            "><": 3070,
            "Ġbase": 3071,
            "Ġfact": 3072,
            "Ð¼": 3073,
            "Ġ2008": 3074,
            "ä¸ĩ": 3075,
            "Ġdon't": 3076,
            "anos": 3077,
            "ĠGu": 3078,
            "ope": 3079,
            "wn": 3080,
            "tor": 3081,
            "Or": 3082,
            "part": 3083,
            "aint": 3084,
            "ems": 3085,
            "Ġdifferent": 3086,
            "äººæ°ĳ": 3087,
            "Ġli": 3088,
            "ç¬¬äºĮ": 3089,
            "Ġevent": 3090,
            "è£ħ": 3091,
            "46": 3092,
            "è¶³": 3093,
            "uli": 3094,
            "åħµ": 3095,
            "aten": 3096,
            "çĶ·": 3097,
            "not": 3098,
            "å¸¦": 3099,
            "the": 3100,
            "å¤ĩ": 3101,
            "Per": 3102,
            "ough": 3103,
            "çģ«": 3104,
            "åĽ¾": 3105,
            "________": 3106,
            "eder": 3107,
            "load": 3108,
            "ĠVal": 3109,
            "UT": 3110,
            "####": 3111,
            "\"\"": 3112,
            "Ġ''": 3113,
            "alia": 3114,
            "å±ħ": 3115,
            "äºŀ": 3116,
            "ĠCent": 3117,
            "Ġproduct": 3118,
            "é¢Ħ": 3119,
            "rop": 3120,
            "tab": 3121,
            "è½¬": 3122,
            "esa": 3123,
            "å®īåħ¨": 3124,
            "ĠUnivers": 3125,
            "eny": 3126,
            "åĲ§": 3127,
            "åĩ»": 3128,
            "ĠIntern": 3129,
            ".)": 3130,
            "rat": 3131,
            "L'": 3132,
            "ache": 3133,
            "3å¹´": 3134,
            "ç§ĺ": 3135,
            "Ġ2010": 3136,
            "åĪĿ": 3137,
            "lear": 3138,
            "æĪ°": 3139,
            "avor": 3140,
            "Ġcos": 3141,
            "isto": 3142,
            "apan": 3143,
            "éĸĢ": 3144,
            "è§Ĵ": 3145,
            "Ġmost": 3146,
            "comp": 3147,
            "eric": 3148,
            "çĮ": 3149,
            "ove": 3150,
            "arm": 3151,
            "ball": 3152,
            "Is": 3153,
            "];": 3154,
            "æĿİ": 3155,
            "Ġclass=\"": 3156,
            "æķħ": 3157,
            "ĠAb": 3158,
            "Er": 3159,
            "ä¸ĢåĢĭ": 3160,
            "Ġ0;": 3161,
            "Ġsum": 3162,
            "æĪ¿": 3163,
            "ĠSal": 3164,
            "Ġ2013": 3165,
            "ols": 3166,
            "ker": 3167,
            "éĻĲ": 3168,
            "æĹ©": 3169,
            "Ġthrough": 3170,
            "éĻĨ": 3171,
            "frac": 3172,
            "ware": 3173,
            "åĽłä¸º": 3174,
            "arget": 3175,
            "Ð´": 3176,
            "sc": 3177,
            "Im": 3178,
            "å¹²": 3179,
            "This": 3180,
            "ç«ł": 3181,
            "Â«": 3182,
            "nos": 3183,
            "ĠNov": 3184,
            "ision": 3185,
            "lu": 3186,
            "ĠCons": 3187,
            "Get": 3188,
            "ĠString": 3189,
            "89": 3190,
            "å¨ģ": 3191,
            "oma": 3192,
            "åħ«": 3193,
            "Ġpeople": 3194,
            "ç¦ı": 3195,
            "ots": 3196,
            "cher": 3197,
            "ĠEr": 3198,
            "mi": 3199,
            "Ġreport": 3200,
            "++": 3201,
            "loc": 3202,
            "Value": 3203,
            "Ġevery": 3204,
            "amin": 3205,
            "idi": 3206,
            "ĠPal": 3207,
            "Ġfound": 3208,
            "Ġread": 3209,
            "obal": 3210,
            "å¯Ĩ": 3211,
            "back": 3212,
            "raf": 3213,
            "å®£": 3214,
            "wh": 3215,
            "éĢŁ": 3216,
            "ĠSi": 3217,
            "las": 3218,
            "ized": 3219,
            "çķĻ": 3220,
            "æ³¢": 3221,
            "Les": 3222,
            "face": 3223,
            "wit": 3224,
            "çīĪ": 3225,
            "å³": 3226,
            "æİĴ": 3227,
            "7å¹´": 3228,
            "æ¯į": 3229,
            "ife": 3230,
            "èİ·": 3231,
            "ency": 3232,
            "å¹¿": 3233,
            "å®³": 3234,
            "ĠOb": 3235,
            "AP": 3236,
            "2å¹´": 3237,
            "Ġerror": 3238,
            "yar": 3239,
            "ules": 3240,
            "Ġvia": 3241,
            "imin": 3242,
            "é£İ": 3243,
            "ideo": 3244,
            "iap": 3245,
            "56": 3246,
            "com/": 3247,
            "æī¿": 3248,
            "cha": 3249,
            "åı¦": 3250,
            "èĮĥ": 3251,
            "å¸Ń": 3252,
            "_m": 3253,
            "å¸Ī": 3254,
            "ħn": 3255,
            "ism": 3256,
            "erson": 3257,
            "aca": 3258,
            "OT": 3259,
            "áĥ": 3260,
            "ä»½": 3261,
            "ox": 3262,
            "å¾ŀ": 3263,
            "esta": 3264,
            "aji": 3265,
            "76": 3266,
            "aki": 3267,
            "agu": 3268,
            "Ġsimple": 3269,
            "Ġwell": 3270,
            "Ġ2012": 3271,
            "ray": 3272,
            "è¬": 3273,
            "angk": 3274,
            "iam": 3275,
            "lem": 3276,
            "Ġhim": 3277,
            "ru": 3278,
            "eza": 3279,
            "Ã¶": 3280,
            "Ġ31": 3281,
            "èĬĤ": 3282,
            "æłĩåĩĨ": 3283,
            "å¯Ł": 3284,
            "ĠSa": 3285,
            "ĠJe": 3286,
            "Ġpossible": 3287,
            "æ¥Ń": 3288,
            "iven": 3289,
            "ĠSel": 3290,
            "ved": 3291,
            "å±ŀ": 3292,
            "çī¹åĪ«": 3293,
            "Ġeffect": 3294,
            "Ġ2000": 3295,
            "ĠâĨĴ": 3296,
            "åħ¶ä¸Ń": 3297,
            "Ġhigh": 3298,
            "ĠSur": 3299,
            "Ġ2011": 3300,
            "PR": 3301,
            "yl": 3302,
            "çĪ±": 3303,
            "Ġsend": 3304,
            "_d": 3305,
            "èģĮ": 3306,
            "çĪ¶": 3307,
            "||": 3308,
            "File": 3309,
            "echo": 3310,
            "atis": 3311,
            "Ġshow": 3312,
            "Ġ2009": 3313,
            "Em": 3314,
            "éĮ": 3315,
            "ĠBer": 3316,
            "æł¸": 3317,
            "But": 3318,
            "åĽłæŃ¤": 3319,
            "çĨ": 3320,
            "Ġthink": 3321,
            "ç¨±": 3322,
            "Ġdown": 3323,
            "59": 3324,
            "Â°": 3325,
            "79": 3326,
            "Ġsl": 3327,
            "ĠKh": 3328,
            "èĲ½": 3329,
            "ç®Ģ": 3330,
            "s/": 3331,
            "Ġplace": 3332,
            "rc": 3333,
            "ji": 3334,
            "agr": 3335,
            "aine": 3336,
            "åĤ³": 3337,
            "ĠUS": 3338,
            "****************": 3339,
            "ç·ļ": 3340,
            "8å¹´": 3341,
            "ç»ıæµİ": 3342,
            "uto": 3343,
            "Mod": 3344,
            "ç²¾": 3345,
            ",Ġ": 3346,
            "ify": 3347,
            "å¸Ŀ": 3348,
            "string": 3349,
            "è¨Ī": 3350,
            "æĢĿ": 3351,
            "ç¦»": 3352,
            "lig": 3353,
            "è´£": 3354,
            "å®¤": 3355,
            "Ġ2007": 3356,
            "ç´ł": 3357,
            "erial": 3358,
            "iden": 3359,
            "px": 3360,
            "éĿĴ": 3361,
            "ĠPor": 3362,
            "enn": 3363,
            "Ġeven": 3364,
            "æ´»åĬ¨": 3365,
            "åł´": 3366,
            "Ġ2006": 3367,
            "uros": 3368,
            "Ġmust": 3369,
            "çŃĸ": 3370,
            "èŃ¦": 3371,
            "åıĭ": 3372,
            "ori": 3373,
            "lection": 3374,
            "æ¸¸": 3375,
            "Ġtable": 3376,
            "Ġfield": 3377,
            "Ġbeing": 3378,
            "ç³»ç»Ł": 3379,
            "had": 3380,
            "ä½Ĩæĺ¯": 3381,
            "æľīåħ³": 3382,
            "å®Ĺ": 3383,
            "ION": 3384,
            "ival": 3385,
            "Ġlevel": 3386,
            "é¥": 3387,
            "è³ĩ": 3388,
            "æľºæŀĦ": 3389,
            "åįĥ": 3390,
            "s:": 3391,
            "Ġexample": 3392,
            "'''": 3393,
            "-202": 3394,
            "_C": 3395,
            "Ġcurrent": 3396,
            "Ġit's": 3397,
            "æ¦": 3398,
            "çİ¯": 3399,
            "odo": 3400,
            "ĠSan": 3401,
            "www": 3402,
            "ä¸ŃçļĦ": 3403,
            "æī§è¡Į": 3404,
            "éģĭ": 3405,
            "Ġproject": 3406,
            "å¦ĩ": 3407,
            "èµĽ": 3408,
            "éĩįè¦ģ": 3409,
            "lay": 3410,
            "pen": 3411,
            "ĠSen": 3412,
            "æ¨¡": 3413,
            "ĠMon": 3414,
            "Ġmit": 3415,
            "ply": 3416,
            "åįİ": 3417,
            "function": 3418,
            "\\n": 3419,
            "met": 3420,
            "ĠãĦ": 3421,
            "Ġ2005": 3422,
            "æĸ¹æ¡Ī": 3423,
            "raw": 3424,
            "orth": 3425,
            "è¡ĮåĬ¨": 3426,
            "-M": 3427,
            "iana": 3428,
            "ãĢĢ": 3429,
            "4å¹´": 3430,
            "è±¡": 3431,
            "aro": 3432,
            "ĠCan": 3433,
            "æ·±": 3434,
            "Ġfund": 3435,
            "æīĢä»¥": 3436,
            "Object": 3437,
            "utes": 3438,
            "kt": 3439,
            "Ġair": 3440,
            "aris": 3441,
            "æĽ¸": 3442,
            "comm": 3443,
            "Ġrecord": 3444,
            "è©²": 3445,
            "SS": 3446,
            "ä»·": 3447,
            "Ġfollowing": 3448,
            "Ġai": 3449,
            "51": 3450,
            "ĠAp": 3451,
            "Il": 3452,
            "azi": 3453,
            "imb": 3454,
            "Ġdie": 3455,
            "uf": 3456,
            "ym": 3457,
            "ä½İ": 3458,
            "uts": 3459,
            "ĠSec": 3460,
            "ĠBl": 3461,
            "ä¹Ĳ": 3462,
            "ĠAss": 3463,
            "è¶ħ": 3464,
            "ä¸ĢäºĽ": 3465,
            "ĠI'm": 3466,
            "IL": 3467,
            "Ġcost": 3468,
            "53": 3469,
            "èįī": 3470,
            "Add": 3471,
            "éĤĦ": 3472,
            "ends": 3473,
            "Ġcome": 3474,
            "ç«¥": 3475,
            "åĲĪä½ľ": 3476,
            "trans": 3477,
            "ken": 3478,
            "ax": 3479,
            "iat": 3480,
            "ä¸ĥ": 3481,
            "Ġ60": 3482,
            "Ġstatic": 3483,
            "æĢİ": 3484,
            "æ½": 3485,
            "åĩł": 3486,
            "Ġweb": 3487,
            "ç¨®": 3488,
            "gen": 3489,
            "_S": 3490,
            "Ap": 3491,
            "ç´¢": 3492,
            "ĠPas": 3493,
            "net": 3494,
            "ä¹Ŀ": 3495,
            "äººçļĦ": 3496,
            "Ġproblem": 3497,
            "air": 3498,
            "ĠLINE": 3499,
            "Ġbefore": 3500,
            "iser": 3501,
            "ania": 3502,
            "Ġtom": 3503,
            "ulation": 3504,
            "So": 3505,
            "iano": 3506,
            "éļ¾": 3507,
            "Exception": 3508,
            "43": 3509,
            "ĠDep": 3510,
            "oper": 3511,
            "å¯¦": 3512,
            "ĠTo": 3513,
            "æİ§": 3514,
            "fil": 3515,
            "åį°": 3516,
            "ization": 3517,
            "Â§": 3518,
            "Por": 3519,
            "è§Ĥ": 3520,
            "[0": 3521,
            "ouse": 3522,
            "ification": 3523,
            "ipe": 3524,
            "åĮ»": 3525,
            "çº³": 3526,
            "è¾¹": 3527,
            "æĮī": 3528,
            "åĵ¥": 3529,
            "iku": 3530,
            "outh": 3531,
            "58": 3532,
            "1]": 3533,
            "äººåı£": 3534,
            "ott": 3535,
            "ĠâĢĿ": 3536,
            "Ġversion": 3537,
            "æ¨Ļ": 3538,
            "çıŃ": 3539,
            "irect": 3540,
            "èı¯": 3541,
            "ç½ª": 3542,
            "Ġcheck": 3543,
            "ĠCO": 3544,
            "Ġq": 3545,
            "ilan": 3546,
            "57": 3547,
            "bi": 3548,
            "Ġsex": 3549,
            "èĪ¬": 3550,
            "è¨Ń": 3551,
            "order": 3552,
            "ä¸įèĥ½": 3553,
            "Ġthose": 3554,
            "æī¾": 3555,
            "list": 3556,
            "atural": 3557,
            "Ġ01": 3558,
            "äº¦": 3559,
            "entr": 3560,
            "é»ĳ": 3561,
            "ohn": 3562,
            "ired": 3563,
            "Ñĭ": 3564,
            "69": 3565,
            "ilo": 3566,
            "IM": 3567,
            "word": 3568,
            "Ġhelp": 3569,
            "é¡¹çĽ®": 3570,
            "éĢĤ": 3571,
            "ket": 3572,
            "iers": 3573,
            "igr": 3574,
            "Ġtake": 3575,
            "uhan": 3576,
            "æĹ¶éĹ´": 3577,
            "Ġmade": 3578,
            "0å¹´": 3579,
            "åįĬ": 3580,
            "Ġorder": 3581,
            "den": 3582,
            "Ph": 3583,
            "eros": 3584,
            "usi": 3585,
            "æĶ¯æĮģ": 3586,
            "çİ°åľ¨": 3587,
            "antz": 3588,
            "Ġmany": 3589,
            "å¼Ģå§ĭ": 3590,
            "apt": 3591,
            "aces": 3592,
            "-S": 3593,
            "ĠTrans": 3594,
            "aza": 3595,
            "cep": 3596,
            "ather": 3597,
            "ä¿Ħ": 3598,
            "æł¹æį®": 3599,
            "ĠFrance": 3600,
            "ĠEt": 3601,
            "åĿ¡": 3602,
            "cont": 3603,
            "-h": 3604,
            "uff": 3605,
            "field": 3606,
            "Ġwhile": 3607,
            "Ġshe": 3608,
            "NU": 3609,
            "Ġwithout": 3610,
            "ĠEnglish": 3611,
            "Ġåľ¨": 3612,
            "ä»ĸçļĦ": 3613,
            "/09": 3614,
            "Ġsupport": 3615,
            "For": 3616,
            "Ġview": 3617,
            "ç¾¤": 3618,
            "gl": 3619,
            "åĵį": 3620,
            "Fr": 3621,
            "ç¸½": 3622,
            "type": 3623,
            "omen": 3624,
            "åīĩ": 3625,
            "cs": 3626,
            "åĢ¼": 3627,
            "oca": 3628,
            "è¾ĥ": 3629,
            "ä¼¯": 3630,
            "ape": 3631,
            "æĬĢæľ¯": 3632,
            "é²": 3633,
            "Ġgood": 3634,
            "Ġprivate": 3635,
            "ges": 3636,
            "ç¾©": 3637,
            "Ġplay": 3638,
            "ches": 3639,
            "åİ¿": 3640,
            "oso": 3641,
            "left": 3642,
            "unj": 3643,
            "cH": 3644,
            "abe": 3645,
            "è¯Ħ": 3646,
            "lin": 3647,
            "éļĽ": 3648,
            "-3": 3649,
            "[i": 3650,
            "usk": 3651,
            "EL": 3652,
            "Los": 3653,
            "Ġchild": 3654,
            "cle": 3655,
            "æĽ²": 3656,
            "ä¸įåĲĮ": 3657,
            "é¡»": 3658,
            "ieu": 3659,
            "è®¤ä¸º": 3660,
            "Ġorg": 3661,
            "/s": 3662,
            "esp": 3663,
            "æĪĳçļĦ": 3664,
            "ĠMe": 3665,
            "æķĻèĤ²": 3666,
            "87": 3667,
            "è¦ģæ±Ĥ": 3668,
            "ä¸Ńå¿ĥ": 3669,
            "æ²Ĵ": 3670,
            "Åĭ": 3671,
            "rim": 3672,
            "lib": 3673,
            "å¡ŀ": 3674,
            "éģĵï¼ļãĢĮ": 3675,
            "isl": 3676,
            "ç§»": 3677,
            "ä½łçļĦ": 3678,
            "contr": 3679,
            "æ¾³": 3680,
            "çĻ»": 3681,
            "Ġ2021-202": 3682,
            "[]": 3683,
            "mit": 3684,
            "å¼ł": 3685,
            "Ġexpress": 3686,
            "ified": 3687,
            "è¯Ĩ": 3688,
            "Item": 3689,
            "........": 3690,
            "ç»§": 3691,
            "èĸ": 3692,
            "ound": 3693,
            "awa": 3694,
            "Man": 3695,
            "CC": 3696,
            "ĠCam": 3697,
            "hip": 3698,
            "Ġboth": 3699,
            "67": 3700,
            "Ġprint": 3701,
            "Ġhuman": 3702,
            "è¿°": 3703,
            "ĠPort": 3704,
            "Ġbag": 3705,
            "42": 3706,
            "çļĦæĺ¯": 3707,
            "ä¾Ŀ": 3708,
            "ä»į": 3709,
            "åŃ©": 3710,
            "åºŃ": 3711,
            "åĸľ": 3712,
            "DS": 3713,
            "abor": 3714,
            "ished": 3715,
            "èĻķ": 3716,
            "çªģ": 3717,
            "å»ºè®®": 3718,
            "mar": 3719,
            "ĠAng": 3720,
            "ĠReg": 3721,
            "Ġhu": 3722,
            "ĠJo": 3723,
            "ende": 3724,
            "ĠII": 3725,
            "ĠCommission": 3726,
            "math": 3727,
            "Ġchange": 3728,
            "å·²ç»ı": 3729,
            "çĬ¯": 3730,
            "EM": 3731,
            "print": 3732,
            "elo": 3733,
            "ivid": 3734,
            "Ġkey": 3735,
            "åī¯": 3736,
            "æĹ¥æľ¬": 3737,
            "åĿĩ": 3738,
            "éĦ": 3739,
            "Ġimportant": 3740,
            "èĭ¥": 3741,
            "åįĩ": 3742,
            "vant": 3743,
            "è·Ł": 3744,
            "utan": 3745,
            "rain": 3746,
            "äººåĳĺ": 3747,
            "ocr": 3748,
            "Ġmember": 3749,
            "éĽ·": 3750,
            "CO": 3751,
            "éļĬ": 3752,
            "åº·": 3753,
            "-me": 3754,
            "erb": 3755,
            "util": 3756,
            "rea": 3757,
            "æ¢Ŀ": 3758,
            "ĠHow": 3759,
            "5å¹´": 3760,
            "ws": 3761,
            "è¯ķ": 3762,
            "ç¼ĸ": 3763,
            "Éĳ": 3764,
            "ç¾İåĽ½": 3765,
            "ily": 3766,
            "Ġsaid": 3767,
            "ĠSeg": 3768,
            "tro": 3769,
            "åĵĪ": 3770,
            "æľįåĬ¡": 3771,
            "tat": 3772,
            "def": 3773,
            "(),": 3774,
            "é¼": 3775,
            "E_": 3776,
            "How": 3777,
            "udio": 3778,
            "ience": 3779,
            "ium": 3780,
            "ĠMal": 3781,
            "ird": 3782,
            "æĶ¿æ²»": 3783,
            "By": 3784,
            "0;": 3785,
            "åĨ³è®®": 3786,
            "æĭ¿": 3787,
            "bre": 3788,
            "tras": 3789,
            "html": 3790,
            "tz": 3791,
            "eno": 3792,
            "Ġinformation": 3793,
            "bat": 3794,
            "item": 3795,
            "åĲī": 3796,
            "åĲĥ": 3797,
            "New": 3798,
            "åĭĴ": 3799,
            "ises": 3800,
            "èĲ¥": 3801,
            "ĠSet": 3802,
            "CH": 3803,
            "-B": 3804,
            "Ġ2001": 3805,
            "âĪĴ": 3806,
            "ä¸Ńåľĭ": 3807,
            "alth": 3808,
            "åºı": 3809,
            "urg": 3810,
            "aison": 3811,
            "If": 3812,
            "41": 3813,
            "68": 3814,
            "çķ¥": 3815,
            "ĠBut": 3816,
            "6å¹´": 3817,
            "æıĲåĩº": 3818,
            "ares": 3819,
            "è¡¨ç¤º": 3820,
            "Ġfre": 3821,
            "è¿Ļä¸Ģ": 3822,
            "æ¹¾": 3823,
            "Ġbest": 3824,
            "æ²Ļ": 3825,
            "çĽĳ": 3826,
            "è®¡åĪĴ": 3827,
            "ç¸£": 3828,
            "Ġsomething": 3829,
            "umber": 3830,
            "çĽŁ": 3831,
            "amo": 3832,
            "æŃĮ": 3833,
            "sub": 3834,
            "td": 3835,
            "lang": 3836,
            "éħĴ": 3837,
            "å¦ĩå¥³": 3838,
            "Ġ0x": 3839,
            "oles": 3840,
            "AG": 3841,
            "ĠAc": 3842,
            "unia": 3843,
            "ension": 3844,
            "ny": 3845,
            "isha": 3846,
            "è¡Ģ": 3847,
            "oni": 3848,
            "è¯ī": 3849,
            "Ġopen": 3850,
            "Ġfun": 3851,
            "ulu": 3852,
            "è¥¿äºļ": 3853,
            "watch": 3854,
            "åħį": 3855,
            "esse": 3856,
            "hy": 3857,
            "ç½²": 3858,
            "ning": 3859,
            "å®Ī": 3860,
            "åº§": 3861,
            "åĪ°äºĨ": 3862,
            "éĻĦ": 3863,
            "rez": 3864,
            "BBI": 3865,
            "ĠSpace": 3866,
            "-C": 3867,
            "åºķ": 3868,
            "Ġbad": 3869,
            "å¿µ": 3870,
            "ĠBe": 3871,
            "ql": 3872,
            "æĶ»": 3873,
            "ains": 3874,
            "Ġä½ł": 3875,
            "åħħ": 3876,
            "éģĶ": 3877,
            "èĻŁ": 3878,
            "ä»»ä½ķ": 3879,
            "Ġsize": 3880,
            "è®Ĭ": 3881,
            "åĪĽ": 3882,
            "utions": 3883,
            "åħļ": 3884,
            "index": 3885,
            "åħ¬éĩĮ": 3886,
            "æĻ¯": 3887,
            "eles": 3888,
            "æŀģ": 3889,
            "ĠOs": 3890,
            "ä¿ĥ": 3891,
            "åĪ¤": 3892,
            "ç§¯": 3893,
            "Ã³ng": 3894,
            "ENT": 3895,
            "å¡Ķ": 3896,
            "iso": 3897,
            "åįļ": 3898,
            "åħ¸": 3899,
            "anding": 3900,
            "Ġtop": 3901,
            "Ġ00": 3902,
            "oro": 3903,
            "æĩī": 3904,
            "Ġcreate": 3905,
            "åľ°åĮº": 3906,
            "æĪĳåĢĳ": 3907,
            "http://": 3908,
            "54": 3909,
            "å¤§éĻĨ": 3910,
            "ĠRes": 3911,
            "inas": 3912,
            "ĠCal": 3913,
            "åĨ³å®ļ": 3914,
            "ç§ĺä¹¦": 3915,
            "å½±åĵį": 3916,
            "Ġgoing": 3917,
            "Form": 3918,
            "ML": 3919,
            "/10": 3920,
            "åķı": 3921,
            "è³½": 3922,
            "ĠMed": 3923,
            "ograph": 3924,
            "ason": 3925,
            "ĠGe": 3926,
            "èĲ¬": 3927,
            "çĵ¦": 3928,
            "PO": 3929,
            "We": 3930,
            "asse": 3931,
            "åı«": 3932,
            "Ġ2004": 3933,
            "ince": 3934,
            ",Ġ(": 3935,
            "ology": 3936,
            "å¹«": 3937,
            "Ġlast": 3938,
            "äºī": 3939,
            "/C": 3940,
            "Sh": 3941,
            "æ··": 3942,
            "Ng": 3943,
            "æĭħ": 3944,
            "ased": 3945,
            "é½": 3946,
            "å»£": 3947,
            "é»ŀ": 3948,
            "æĪ·": 3949,
            "olo": 3950,
            "IR": 3951,
            "ÂŃ": 3952,
            "éģ¸": 3953,
            "ley": 3954,
            "ness": 3955,
            "Ġaccess": 3956,
            "ases": 3957,
            "-8": 3958,
            "å¯Į": 3959,
            "äº²": 3960,
            "éĢģ": 3961,
            "ĠUnited": 3962,
            "è¿ŀ": 3963,
            "cos": 3964,
            "çĽĬ": 3965,
            "æĽ°": 3966,
            "è§Ħå®ļ": 3967,
            "ç´Ħ": 3968,
            "æ³ķå¾ĭ": 3969,
            "Ġ2002": 3970,
            "æĸ°åĬł": 3971,
            "æ²¹": 3972,
            "oral": 3973,
            "Ġnet": 3974,
            "éĻį": 3975,
            "æĴŃ": 3976,
            "_T": 3977,
            "åĸ®": 3978,
            "åĲ¦": 3979,
            "iction": 3980,
            "ĠLos": 3981,
            "Ġmaterial": 3982,
            "aha": 3983,
            "å¾ħ": 3984,
            "è¿Ļæł·": 3985,
            "Gr": 3986,
            "æĺ¾": 3987,
            "iy": 3988,
            "æĸ°åĬłåĿ¡": 3989,
            "fs": 3990,
            "IV": 3991,
            "æĸĩåĮĸ": 3992,
            "ä¸ĢèĪ¬": 3993,
            "uni": 3994,
            "èĽ": 3995,
            "uls": 3996,
            "ĠFl": 3997,
            "bol": 3998,
            "ream": 3999,
            "irus": 4000,
            "ç¶²": 4001,
            "è´Ł": 4002,
            "Ġ35": 4003,
            "Ġfour": 4004,
            "ono": 4005,
            "æī¹": 4006,
            "çł´": 4007,
            "='": 4008,
            "over": 4009,
            "ĠSystem": 4010,
            "ril": 4011,
            "æīĺ": 4012,
            "Ġge": 4013,
            "è£¡": 4014,
            "æİª": 4015,
            "Ġtry": 4016,
            "èŀ": 4017,
            "åİĨ": 4018,
            "çĶŁæ´»": 4019,
            "äºĨä¸Ģ": 4020,
            "æ´Ľ": 4021,
            "èŃ°": 4022,
            "63": 4023,
            "ä¸ĬçļĦ": 4024,
            "Ġselect": 4025,
            "å¿ħé¡»": 4026,
            "ampion": 4027,
            "æĺ¯ä¸Ģ": 4028,
            "è¡Ĺ": 4029,
            "å¥ĩ": 4030,
            "wal": 4031,
            "US": 4032,
            "omet": 4033,
            "ĠPeak": 4034,
            "occ": 4035,
            "æĪĲä¸º": 4036,
            "ĠLem": 4037,
            "ĠCop": 4038,
            "tica": 4039,
            "Ġjava": 4040,
            "åĸĦ": 4041,
            "Ġbreak": 4042,
            "ÑģÑĤ": 4043,
            "_n": 4044,
            "ingo": 4045,
            "ç¿»": 4046,
            "Ġnormal": 4047,
            "84": 4048,
            "Ġstill": 4049,
            "Si": 4050,
            "Ġetc": 4051,
            "çĬ¶": 4052,
            "emple": 4053,
            "åŃ£": 4054,
            "Ġvalues": 4055,
            "ç¬¬ä¸ī": 4056,
            "åħĪçĶŁ": 4057,
            "LO": 4058,
            "çļ®": 4059,
            "éĨ": 4060,
            "Ġfar": 4061,
            "ugg": 4062,
            "Event": 4063,
            "IG": 4064,
            "erd": 4065,
            "ĠIN": 4066,
            "å±Ĭ": 4067,
            "Ġnatural": 4068,
            "tan": 4069,
            "ĠDr": 4070,
            "ived": 4071,
            "ä¿¡æģ¯": 4072,
            "Ġ80": 4073,
            "æı´": 4074,
            "73": 4075,
            "èĺŃ": 4076,
            "ĠUN": 4077,
            "arri": 4078,
            "æŀ¶": 4079,
            "chi": 4080,
            "èĪª": 4081,
            "å¿Ĺ": 4082,
            "const": 4083,
            "ä¸»ä¹ī": 4084,
            "Ġstate": 4085,
            "ä½ľä¸º": 4086,
            "åķĬ": 4087,
            "ä¹ħ": 4088,
            "åħ¬çº¦": 4089,
            "PA": 4090,
            "atives": 4091,
            "62": 4092,
            "Ġhttp://": 4093,
            "æľ¨": 4094,
            "oud": 4095,
            "åĮºåŁŁ": 4096,
            "Class": 4097,
            "omin": 4098,
            "Ġsmall": 4099,
            "aps": 4100,
            "éļı": 4101,
            "ĠãĢĲ": 4102,
            "aven": 4103,
            "wer": 4104,
            "æĻļ": 4105,
            "Ġ---": 4106,
            "åħĴ": 4107,
            "empo": 4108,
            "çĶ¢": 4109,
            "å°Ħ": 4110,
            "cu": 4111,
            "52": 4112,
            "ç¥¨": 4113,
            "box": 4114,
            "Ġanother": 4115,
            "åģľ": 4116,
            "ĠDec": 4117,
            "æĸ¹æ³ķ": 4118,
            "éĿ©": 4119,
            "Error": 4120,
            "å¹´ï¼Ī": 4121,
            "æ¯Ĵ": 4122,
            "EC": 4123,
            "åħ±åĴĮ": 4124,
            "Ġimage": 4125,
            "ius": 4126,
            "Dis": 4127,
            "å¤§çļĦ": 4128,
            "object": 4129,
            "ĠLicense": 4130,
            "åĩı": 4131,
            "à²¥": 4132,
            "åĿ¦": 4133,
            "void": 4134,
            "uman": 4135,
            "ĠRo": 4136,
            "atar": 4137,
            "ples": 4138,
            "argo": 4139,
            "è§ī": 4140,
            "ĠSc": 4141,
            "ĠSem": 4142,
            "å£°": 4143,
            "âĢ²": 4144,
            "æ¨Ĥ": 4145,
            "å¤§åŃ¦": 4146,
            "å·¦": 4147,
            "çľ¼": 4148,
            "yd": 4149,
            "ĠJan": 4150,
            "Ä«": 4151,
            "pre": 4152,
            "Ġthree": 4153,
            "å·®": 4154,
            "èĥ½åĬĽ": 4155,
            "Ġandroid": 4156,
            "Ġgot": 4157,
            "url": 4158,
            "Î±": 4159,
            "æľīä¸Ģ": 4160,
            "å¼µ": 4161,
            "imos": 4162,
            "Ġyears": 4163,
            "çµĦ": 4164,
            "inte": 4165,
            "ential": 4166,
            "æµĭ": 4167,
            "æ¬§": 4168,
            "é¢Ŀ": 4169,
            "ĠBel": 4170,
            "Par": 4171,
            "izo": 4172,
            "aje": 4173,
            "ault": 4174,
            "å½ķ": 4175,
            "ony": 4176,
            "ĠPublic": 4177,
            "ĠMart": 4178,
            "atre": 4179,
            "æ§": 4180,
            "çĶ³": 4181,
            "æ´ĭ": 4182,
            "ä»ĸåĢĳ": 4183,
            "ĠMr": 4184,
            "input": 4185,
            "çµĲ": 4186,
            "isis": 4187,
            "odes": 4188,
            "Pr": 4189,
            "uck": 4190,
            "åįł": 4191,
            "ä¿ĿæĬ¤": 4192,
            "åľ°æĸ¹": 4193,
            "kar": 4194,
            "åĳ¢": 4195,
            "Éª": 4196,
            "12æľĪ": 4197,
            "Sp": 4198,
            "indo": 4199,
            "æ¬¢": 4200,
            "-f": 4201,
            "æ³¨æĦı": 4202,
            "VID": 4203,
            "ĠÐ¿": 4204,
            "Ġposition": 4205,
            "ĠJohn": 4206,
            "é©¬æĿ¥": 4207,
            "ĠAN": 4208,
            "Ġ70": 4209,
            "74": 4210,
            "ĠLib": 4211,
            "å¤§ä¼ļ": 4212,
            "ç¶Ń": 4213,
            "abar": 4214,
            "ĠâĢĻ": 4215,
            "[0]": 4216,
            "erri": 4217,
            "âĢİ": 4218,
            "oco": 4219,
            "Time": 4220,
            "å¾®": 4221,
            "rel": 4222,
            "Lo": 4223,
            "èĵ": 4224,
            "å¤Ł": 4225,
            "åºĹ": 4226,
            "ĠSu": 4227,
            "Ġrequest": 4228,
            "vas": 4229,
            "ling": 4230,
            "ither": 4231,
            "ä»ĭ": 4232,
            "éķĩ": 4233,
            "uku": 4234,
            "ĠDan": 4235,
            "å¸«": 4236,
            "éº¼": 4237,
            "run": 4238,
            "åłĤ": 4239,
            "ists": 4240,
            "DA": 4241,
            "åı³": 4242,
            "ĠUr": 4243,
            "kh": 4244,
            "çĶļ": 4245,
            "pi": 4246,
            "ibu": 4247,
            "Ġpath": 4248,
            "ä¼ģ": 4249,
            "Ġfilm": 4250,
            "ways": 4251,
            "Ġworld": 4252,
            "çģ£": 4253,
            "ĠPat": 4254,
            "å¹«åĬ©": 4255,
            "Ġgiven": 4256,
            "erm": 4257,
            "çĶ°": 4258,
            "çļĩ": 4259,
            "è¿Ļç§į": 4260,
            "eni": 4261,
            "db": 4262,
            "ĠCr": 4263,
            "xe": 4264,
            "Ġagainst": 4265,
            "å»ºç«ĭ": 4266,
            "ention": 4267,
            "ĠAll": 4268,
            "ĠThere": 4269,
            "ically": 4270,
            "çĲĨäºĭ": 4271,
            "Ġ2003": 4272,
            "é©¬æĿ¥è¥¿äºļ": 4273,
            "ä¹ł": 4274,
            "array": 4275,
            "åĪ¥": 4276,
            "61": 4277,
            "ĠAS": 4278,
            "ï»¿": 4279,
            "ĠGoogle": 4280,
            "Ġstand": 4281,
            "72": 4282,
            "ç»Ĩ": 4283,
            "èģŀ": 4284,
            "--------------------------------": 4285,
            "åį«": 4286,
            "Men": 4287,
            "/202": 4288,
            "è¯į": 4289,
            "RO": 4290,
            "çĥŃ": 4291,
            "ĠPart": 4292,
            "Act": 4293,
            "ĠMen": 4294,
            "äººæĿĥ": 4295,
            "ä¸ŃåĽ½å¤§éĻĨ": 4296,
            "move": 4297,
            "èªį": 4298,
            "rix": 4299,
            "æ¹ĸ": 4300,
            "Ġlink": 4301,
            "lick": 4302,
            "ä¹Łæĺ¯": 4303,
            "81": 4304,
            "æĿĢ": 4305,
            "å´": 4306,
            "Ġown": 4307,
            "çīĻ": 4308,
            "Ġpersonal": 4309,
            "83": 4310,
            "ĠWikipedia": 4311,
            "/**": 4312,
            "Ġ32": 4313,
            "ĠDis": 4314,
            "gent": 4315,
            "_name": 4316,
            "Ġyo": 4317,
            "æĸ¹å¼ı": 4318,
            "PS": 4319,
            "from": 4320,
            "oman": 4321,
            "#include": 4322,
            "ĠIr": 4323,
            "Ġconfig": 4324,
            "æ¨£": 4325,
            "åĬª": 4326,
            "ĠDon": 4327,
            "åĲ¬": 4328,
            "Ġaction": 4329,
            "ĠWh": 4330,
            "uga": 4331,
            "-201": 4332,
            "tera": 4333,
            "Ġday": 4334,
            "åĨĻ": 4335,
            "java": 4336,
            "éĬ": 4337,
            "ä¼¼": 4338,
            "web": 4339,
            "Ass": 4340,
            "thing": 4341,
            "aise": 4342,
            "å±¬": 4343,
            "bit": 4344,
            "ĠDE": 4345,
            "åģ¥": 4346,
            "001": 4347,
            "Ġsk": 4348,
            "åĪĳ": 4349,
            "hib": 4350,
            "Ġgas": 4351,
            "ries": 4352,
            "åĨľ": 4353,
            "ä¼Ĺ": 4354,
            "éĢĢ": 4355,
            "71": 4356,
            "çºª": 4357,
            "ervice": 4358,
            "æŁĲ": 4359,
            "iller": 4360,
            "enz": 4361,
            "oka": 4362,
            "æĶ¿çŃĸ": 4363,
            "82": 4364,
            "uba": 4365,
            "raz": 4366,
            "ayo": 4367,
            "Ġbig": 4368,
            "è´¢": 4369,
            "éªĮ": 4370,
            "çĶ±äºİ": 4371,
            "Bl": 4372,
            "åĭĻ": 4373,
            "å¸®": 4374,
            "æĹ¶åĢĻ": 4375,
            "Ġä¸Ń": 4376,
            "Key": 4377,
            "ï¼ĮĊ": 4378,
            "alo": 4379,
            "itions": 4380,
            "éĥ½æĺ¯": 4381,
            "inos": 4382,
            "Control": 4383,
            "Ġcapital": 4384,
            "qual": 4385,
            "æĸĩä»¶": 4386,
            "åı°æ¹¾": 4387,
            "ĠDo": 4388,
            "usan": 4389,
            "Ð·": 4390,
            "è©ŀ": 4391,
            "test": 4392,
            "ĠUT": 4393,
            "hos": 4394,
            "ĠTur": 4395,
            "ego": 4396,
            "èĩªçĶ±": 4397,
            "imu": 4398,
            "å¹³æĸ¹": 4399,
            "æģ©": 4400,
            "ç»§ç»Ń": 4401,
            "500": 4402,
            "ided": 4403,
            "uso": 4404,
            "iros": 4405,
            "off": 4406,
            "Ġbuild": 4407,
            "unes": 4408,
            "emia": 4409,
            "arren": 4410,
            "åĽ´": 4411,
            "åıĥ": 4412,
            "Ġask": 4413,
            "inst": 4414,
            "çº¢": 4415,
            "erst": 4416,
            "ĠMy": 4417,
            "é¬": 4418,
            "æ¤": 4419,
            "åª": 4420,
            "çĿ£": 4421,
            "éĺ³": 4422,
            "âĢĻs": 4423,
            "ĠSch": 4424,
            "éİ": 4425,
            "ĠParis": 4426,
            "-n": 4427,
            "Ġmiss": 4428,
            "Ġwater": 4429,
            "Ġglobal": 4430,
            "æķ°æį®": 4431,
            "æ°ı": 4432,
            "éĿŀå¸¸": 4433,
            "Ġperiod": 4434,
            "èį¯": 4435,
            "-v": 4436,
            "Field": 4437,
            "Åį": 4438,
            "Ġcommand": 4439,
            "ĠMa": 4440,
            "amar": 4441,
            "aile": 4442,
            "æ³¨éŁ³": 4443,
            "Ġmap": 4444,
            "ç»Ī": 4445,
            "ĠMo": 4446,
            "æķĳ": 4447,
            "illes": 4448,
            "query": 4449,
            "7æľĪ": 4450,
            "akin": 4451,
            "åĲ«": 4452,
            "ongo": 4453,
            "ä¸»å¸Ń": 4454,
            "æ»¡": 4455,
            "Ñĩ": 4456,
            "åĴĮå¹³": 4457,
            "Sel": 4458,
            "è¤": 4459,
            "åĲĮæĹ¶": 4460,
            "åĦ¿ç«¥": 4461,
            "Ġ90": 4462,
            "ART": 4463,
            "oba": 4464,
            "s\"": 4465,
            "Ġduring": 4466,
            "oint": 4467,
            "æĬĹ": 4468,
            "gress": 4469,
            "ecn": 4470,
            "éĲ": 4471,
            "s'": 4472,
            "ĠOl": 4473,
            "Ġdesign": 4474,
            "çĶ²": 4475,
            "Ġcell": 4476,
            "Ġinput": 4477,
            "ä»ĺ": 4478,
            "Ġservice": 4479,
            "ham": 4480,
            "åıĮ": 4481,
            "éļĨ": 4482,
            "itude": 4483,
            "æ°¸": 4484,
            "æļ´": 4485,
            "size": 4486,
            "ar-": 4487,
            "aves": 4488,
            "å°½": 4489,
            "çĭ¬": 4490,
            "Ġabove": 4491,
            "aban": 4492,
            "æĹħ": 4493,
            "è½½": 4494,
            "DB": 4495,
            "Info": 4496,
            "Ġsense": 4497,
            "Ġcalled": 4498,
            "6æľĪ": 4499,
            "ING": 4500,
            "anga": 4501,
            "ä¼ĺ": 4502,
            "page": 4503,
            "iran": 4504,
            "anger": 4505,
            "Ġleft": 4506,
            "å®Ŀ": 4507,
            "ç¼Ķ": 4508,
            "æ£®": 4509,
            "ç£": 4510,
            "ards": 4511,
            "-k": 4512,
            "èĭı": 4513,
            "ç°": 4514,
            "æ°£": 4515,
            "ube": 4516,
            "èĪ¹": 4517,
            "95": 4518,
            "é¢¨": 4519,
            "itive": 4520,
            "æİĪ": 4521,
            "Pl": 4522,
            "ÑĢÐ°": 4523,
            "iba": 4524,
            "ä½ľçĶ¨": 4525,
            "å¾ĹåĪ°": 4526,
            "gar": 4527,
            "ĠCont": 4528,
            "crit": 4529,
            "èĨ": 4530,
            "emen": 4531,
            "\"]": 4532,
            "-4": 4533,
            "å¤®": 4534,
            "Ġcontent": 4535,
            "ifier": 4536,
            "Ġnext": 4537,
            "Ġ45": 4538,
            "uses": 4539,
            "_M": 4540,
            "9æľĪ": 4541,
            "ee": 4542,
            "åħ»": 4543,
            "ground": 4544,
            "ç¾İåħĥ": 4545,
            "Ġarm": 4546,
            "èĢĮä¸Ķ": 4547,
            "è¿Ļæĺ¯": 4548,
            "èĤ¡": 4549,
            "ison": 4550,
            "çĳŀ": 4551,
            "eo": 4552,
            "æłĩåĩĨåŃĹ": 4553,
            "eli": 4554,
            "202": 4555,
            "older": 4556,
            "Ġturn": 4557,
            "Ġoh": 4558,
            "Ġresults": 4559,
            "ieve": 4560,
            "æģĲ": 4561,
            "èİ·å¾Ĺ": 4562,
            "group": 4563,
            "dic": 4564,
            "ĠPen": 4565,
            "gn": 4566,
            "å¼Ł": 4567,
            "result": 4568,
            "Ġnature": 4569,
            "Ġcolor": 4570,
            "ibo": 4571,
            "æĢģ": 4572,
            "å¢ŀåĬł": 4573,
            "ride": 4574,
            "lim": 4575,
            "å²Ľ": 4576,
            "å°ļ": 4577,
            "ä¸¥": 4578,
            "iez": 4579,
            "åĹ": 4580,
            "igu": 4581,
            "Cre": 4582,
            "Ġbit": 4583,
            "uti": 4584,
            "Ġwithin": 4585,
            "lam": 4586,
            "abel": 4587,
            "ĠGi": 4588,
            "Ġmajor": 4589,
            "Ð¹": 4590,
            "ready": 4591,
            "Element": 4592,
            "Ġsource": 4593,
            "çĲĨäºĭä¼ļ": 4594,
            "can": 4595,
            "option": 4596,
            "Ġmight": 4597,
            "Ġ`": 4598,
            "çĴ": 4599,
            "parent": 4600,
            "é¾Ļ": 4601,
            "éĻ©": 4602,
            "ç¦ģ": 4603,
            "é¡ŀ": 4604,
            "ä¹ĭåĲİ": 4605,
            "tex": 4606,
            "ids": 4607,
            "èī¾": 4608,
            "Mas": 4609,
            "éłĺ": 4610,
            "Ġreally": 4611,
            "Ġdouble": 4612,
            "åĬ¿": 4613,
            "ĠAct": 4614,
            "æĺ¥": 4615,
            "atos": 4616,
            "Ġep": 4617,
            "article": 4618,
            "length": 4619,
            "ĠIng": 4620,
            "Ġ__": 4621,
            "æĢİä¹Ī": 4622,
            "BN": 4623,
            "anti": 4624,
            "ĠLo": 4625,
            "ĠYork": 4626,
            "ĠMod": 4627,
            "æĪĲåĳĺ": 4628,
            "ĠRec": 4629,
            "ĠSub": 4630,
            "[i]": 4631,
            "ĠCast": 4632,
            "Í¡": 4633,
            "mat": 4634,
            "roll": 4635,
            "position": 4636,
            "Map": 4637,
            "tice": 4638,
            "10æľĪ": 4639,
            "æĭ©": 4640,
            "ifa": 4641,
            "Ġsince": 4642,
            "æĸŃ": 4643,
            "è¦ª": 4644,
            "éĢ£": 4645,
            "æİªæĸ½": 4646,
            "é¸": 4647,
            "çİ¯å¢ĥ": 4648,
            "åģĩ": 4649,
            "-P": 4650,
            "ĠRob": 4651,
            "éĩĩåıĸ": 4652,
            "ĠDi": 4653,
            "æ£Ģ": 4654,
            "Ġcolumn": 4655,
            "Ġindex": 4656,
            "Ġmedia": 4657,
            "place": 4658,
            "Ġdefault": 4659,
            "æ¯Ľ": 4660,
            "ĠChina": 4661,
            "error": 4662,
            "ĠDem": 4663,
            "åĵª": 4664,
            "è«ĸ": 4665,
            "ĠMay": 4666,
            "Index": 4667,
            "åħ³ç³»": 4668,
            "çīĮ": 4669,
            "éŁĵ": 4670,
            "ief": 4671,
            "çĽ®åīį": 4672,
            "å±Ĥ": 4673,
            "link": 4674,
            "Size": 4675,
            "All": 4676,
            "Ġfree": 4677,
            "path": 4678,
            "Ġsolution": 4679,
            "inho": 4680,
            "hes": 4681,
            "Ġ500": 4682,
            "å°İ": 4683,
            "èµĦæºĲ": 4684,
            "ede": 4685,
            ":/": 4686,
            "bon": 4687,
            "å®ĮæĪĲ": 4688,
            ":0": 4689,
            "é»Ħ": 4690,
            "Ġsecret": 4691,
            "åħ´": 4692,
            "çĶ»": 4693,
            "ĠBo": 4694,
            "ĠEd": 4695,
            "Ġoutput": 4696,
            "Que": 4697,
            "Ġlarge": 4698,
            "_f": 4699,
            "sum": 4700,
            "ii": 4701,
            "Ġitem": 4702,
            "Ġvideo": 4703,
            "code": 4704,
            "ä¹ĭéĹ´": 4705,
            "ju": 4706,
            "Path": 4707,
            "è¨ĺ": 4708,
            "TR": 4709,
            "Ð¿": 4710,
            "æķ£": 4711,
            "è¿ª": 4712,
            "tar": 4713,
            "ĠGre": 4714,
            "map": 4715,
            "è®¨": 4716,
            "Ġhead": 4717,
            "Ġgreat": 4718,
            "aso": 4719,
            "ĠSing": 4720,
            "è¡¥": 4721,
            "FI": 4722,
            "State": 4723,
            "Ac": 4724,
            "ogo": 4725,
            "Ġ\"S": 4726,
            "Ġ1999": 4727,
            "xa": 4728,
            "\\\\": 4729,
            "ĠTim": 4730,
            "èģ²": 4731,
            "åŁºéĩĳ": 4732,
            "Ġmean": 4733,
            "ç«¯": 4734,
            "âĢĶâĢĶ": 4735,
            "ç¼Ķçº¦": 4736,
            "è®Ń": 4737,
            "Ġtoo": 4738,
            "ĉĉĉĉ": 4739,
            "Ġpower": 4740,
            "ä¼¤": 4741,
            "ocal": 4742,
            "å°ģ": 4743,
            "ĠTe": 4744,
            "æ¼¢": 4745,
            "è°¢": 4746,
            "è¡Įä¸º": 4747,
            "ä¸¹": 4748,
            "Ġsite": 4749,
            "ĠNa": 4750,
            "estr": 4751,
            "è¿ľ": 4752,
            "amba": 4753,
            "Int": 4754,
            "çĸĹ": 4755,
            "3æľĪ": 4756,
            "å¥¥": 4757,
            "message": 4758,
            "ANT": 4759,
            "ï¼ļâĢľ": 4760,
            "I'm": 4761,
            "ULL": 4762,
            "nel": 4763,
            "Ġ36": 4764,
            "ĠCre": 4765,
            "åıĳçĶŁ": 4766,
            "ĠAh": 4767,
            "imal": 4768,
            "ĠNe": 4769,
            "è¦ĸ": 4770,
            "PU": 4771,
            "oph": 4772,
            "akt": 4773,
            "åľĺ": 4774,
            "å¥½çļĦ": 4775,
            "å¸¶": 4776,
            "ĠChar": 4777,
            "å¾Īå¤ļ": 4778,
            "Ab": 4779,
            "ference": 4780,
            "èī¯": 4781,
            "Ġnational": 4782,
            "Test": 4783,
            "èĹı": 4784,
            "ĠCovid-19": 4785,
            "å©ļ": 4786,
            "Ġapplication": 4787,
            "Ġok": 4788,
            "ift": 4789,
            "ĠGl": 4790,
            "Ġfall": 4791,
            "æĿĥåĪ©": 4792,
            "Rec": 4793,
            "å¸ĮæľĽ": 4794,
            "å¤ľ": 4795,
            "ĠCap": 4796,
            "ĠÑģ": 4797,
            "ĠMor": 4798,
            "IA": 4799,
            "äºĪ": 4800,
            "æľŁéĹ´": 4801,
            "ä»ħ": 4802,
            "/11": 4803,
            "æĿĲ": 4804,
            "select": 4805,
            "æ²Ĵæľī": 4806,
            "æĿ¿": 4807,
            "åľĸ": 4808,
            "TT": 4809,
            "Ġtab": 4810,
            "ä½Ľ": 4811,
            "ç¾İåľĭ": 4812,
            "ĠLat": 4813,
            "width": 4814,
            "less": 4815,
            "èŀį": 4816,
            "ĠNot": 4817,
            "My": 4818,
            "ä¹ĭä¸Ģ": 4819,
            "oup": 4820,
            "åį±": 4821,
            "py": 4822,
            "å¹´ï¼ī": 4823,
            "OL": 4824,
            "ç¥ĸ": 4825,
            "Ġps": 4826,
            "ä¸ģ": 4827,
            "Ġlead": 4828,
            "point": 4829,
            "sl": 4830,
            "æĢ¥": 4831,
            "è½ī": 4832,
            "iner": 4833,
            "agn": 4834,
            "5æľĪ": 4835,
            "åĳ¼": 4836,
            "Ġdate": 4837,
            "start": 4838,
            "å»¶": 4839,
            "ĠHo": 4840,
            "ĠEurope": 4841,
            "$$": 4842,
            "ï¼į": 4843,
            "Ġ39": 4844,
            "Ġlife": 4845,
            "vey": 4846,
            "çİ©": 4847,
            "Ġlot": 4848,
            "äº¡": 4849,
            "else": 4850,
            "èĩªå·±çļĦ": 4851,
            "ivity": 4852,
            "uny": 4853,
            "åĲĹï¼Ł": 4854,
            "org/": 4855,
            "åŁ¹": 4856,
            "Ġlimit": 4857,
            "Kh": 4858,
            "orge": 4859,
            "èĴĻ": 4860,
            "lec": 4861,
            "è®¢": 4862,
            "Ġ33": 4863,
            "ĠIII": 4864,
            "Ġlater": 4865,
            "éĵģ": 4866,
            "å·¥ç¨ĭ": 4867,
            "Date": 4868,
            "Array": 4869,
            "NA": 4870,
            "Ġlittle": 4871,
            "ĠIS": 4872,
            "Ġaround": 4873,
            "8æľĪ": 4874,
            "ĠSin": 4875,
            "config": 4876,
            "åĬªåĬĽ": 4877,
            "upa": 4878,
            "pose": 4879,
            "çĽ®æłĩ": 4880,
            "pas": 4881,
            "æŃ£å¼ı": 4882,
            "otel": 4883,
            "Ġservices": 4884,
            "é£ŀ": 4885,
            "Ġsingle": 4886,
            "auc": 4887,
            "rt": 4888,
            "Lay": 4889,
            "è£ģ": 4890,
            "ä¸Ńæĸĩ": 4891,
            "What": 4892,
            "ĠĠ(": 4893,
            "char": 4894,
            "å·Ŀ": 4895,
            "ĠSim": 4896,
            "m_": 4897,
            "11æľĪ": 4898,
            "Ġtarget": 4899,
            "PK": 4900,
            "Ġarea": 4901,
            "å°Ī": 4902,
            "Ġ300": 4903,
            "Tu": 4904,
            "1æľĪ": 4905,
            "ä¹İ": 4906,
            "U+": 4907,
            "FA": 4908,
            "åŃĺåľ¨": 4909,
            "uth": 4910,
            "åĨ²": 4911,
            "å§Ĩ": 4912,
            "post": 4913,
            "æ³°": 4914,
            "4æľĪ": 4915,
            "æĺ¯åľ¨": 4916,
            "'d": 4917,
            "åĿĲ": 4918,
            "Context": 4919,
            "Ent": 4920,
            "é¡Į": 4921,
            "ienne": 4922,
            "Ġpad": 4923,
            "fi": 4924,
            "/*": 4925,
            "ether": 4926,
            "idd": 4927,
            "æĿŁ": 4928,
            "éģĩ": 4929,
            "ĠStates": 4930,
            "Î¿": 4931,
            "çķ«": 4932,
            "èĪī": 4933,
            "etr": 4934,
            "User": 4935,
            "ured": 4936,
            "Ġgive": 4937,
            "itan": 4938,
            "uter": 4939,
            "é»¨": 4940,
            "ĠMac": 4941,
            "orial": 4942,
            "Ġcat": 4943,
            "è¨±": 4944,
            "è°Ī": 4945,
            "iff": 4946,
            "((": 4947,
            "ses": 4948,
            "su": 4949,
            "ä¸įä¼ļ": 4950,
            "elect": 4951,
            "Ġload": 4952,
            "df": 4953,
            "chool": 4954,
            "ä¸´": 4955,
            "éĴ±": 4956,
            "è¯º": 4957,
            "Ġpay": 4958,
            "UE": 4959,
            "Ġold": 4960,
            "wi": 4961,
            "eme": 4962,
            "1\"": 4963,
            "ç¼º": 4964,
            "ĠSte": 4965,
            "Ëĭ": 4966,
            "Las": 4967,
            "ç¬ĳ": 4968,
            "Ġinternational": 4969,
            "image": 4970,
            "onto": 4971,
            "ĠMic": 4972,
            "ĠMad": 4973,
            "Ġcontext": 4974,
            "ä¸Ģèµ·": 4975,
            "qui": 4976,
            "anas": 4977,
            "Ġworking": 4978,
            "çĽ¸åħ³": 4979,
            "è¡ĮæĶ¿": 4980,
            "ello": 4981,
            "1;": 4982,
            "96": 4983,
            "ĠDel": 4984,
            "æ¬Ĭ": 4985,
            "è«ĭ": 4986,
            "QL": 4987,
            "Not": 4988,
            "oren": 4989,
            "xy": 4990,
            "arra": 4991,
            "imat": 4992,
            "98": 4993,
            "ä¸įè¦ģ": 4994,
            "Model": 4995,
            "Ġface": 4996,
            "ä¼°": 4997,
            "Ġband": 4998,
            "Ġsuccess": 4999,
            "Ð½Ð¸": 5000,
            "çµ¦": 5001,
            "Ġhome": 5002,
            "Ġidea": 5003,
            "2]": 5004,
            "æĨ": 5005,
            "1/": 5006,
            "åī§": 5007,
            "èŃ¯": 5008,
            "HO": 5009,
            "Over": 5010,
            "ä¸Ńå¤®": 5011,
            "PI": 5012,
            "çŃĶ": 5013,
            "anco": 5014,
            "ifs": 5015,
            "0x": 5016,
            "åħ¨çĲĥ": 5017,
            "çŁŃ": 5018,
            "âĢĿçļĦ": 5019,
            "äºĴ": 5020,
            "ĠPS": 5021,
            "source": 5022,
            "çľ¾": 5023,
            "Up": 5024,
            "Ġmeans": 5025,
            "istan": 5026,
            "T_": 5027,
            "æĽ¼": 5028,
            "zu": 5029,
            "âĢ¢": 5030,
            "åħ±åĴĮåĽ½": 5031,
            "ebook": 5032,
            "ĠPrem": 5033,
            "iek": 5034,
            "ĠSuper": 5035,
            "æİ§åĪ¶": 5036,
            "ester": 5037,
            "uzi": 5038,
            "ĠWhat": 5039,
            "ä»¥ä¸ĭ": 5040,
            "ended": 5041,
            "Ġblock": 5042,
            "Ġ34": 5043,
            "Log": 5044,
            "pol": 5045,
            "éĵ¶": 5046,
            "æĪĸèĢħ": 5047,
            "è½»": 5048,
            "[\"": 5049,
            "Ġbetter": 5050,
            "åİĭ": 5051,
            "Ġms": 5052,
            "å«": 5053,
            "iness": 5054,
            "ĠVer": 5055,
            "ck": 5056,
            "Ġmessage": 5057,
            "Ã¹n": 5058,
            "èĥĮ": 5059,
            "ental": 5060,
            "Pos": 5061,
            "aye": 5062,
            "eters": 5063,
            "åĽŃ": 5064,
            "æĪĲç«ĭ": 5065,
            "onde": 5066,
            "èĶ": 5067,
            "ories": 5068,
            "Ġable": 5069,
            "çİī": 5070,
            "ä¸ºäºĨ": 5071,
            "éĢīæĭ©": 5072,
            "éģŃ": 5073,
            "éĢı": 5074,
            "ä¸ĢçĽ´": 5075,
            "Î½": 5076,
            "amen": 5077,
            "ĠMont": 5078,
            "anks": 5079,
            "èĩº": 5080,
            "utos": 5081,
            "Ġtrain": 5082,
            "Of": 5083,
            "---": 5084,
            "Ġsure": 5085,
            "head": 5086,
            "-5": 5087,
            "èİ«": 5088,
            "åŃ©åŃĲ": 5089,
            "åŁĥ": 5090,
            "97": 5091,
            "Ġfiles": 5092,
            "åıĤä¸İ": 5093,
            "Seg": 5094,
            "è¡£": 5095,
            "create": 5096,
            "check": 5097,
            "xi": 5098,
            "åŁºæľ¬": 5099,
            "èĦĳ": 5100,
            "Ġfit": 5101,
            "eff": 5102,
            "Ð±": 5103,
            "æľĢåĲİ": 5104,
            "dr": 5105,
            "åºĶè¯¥": 5106,
            "Ġbased": 5107,
            "eto": 5108,
            "ney": 5109,
            "å¦Ĥä½ķ": 5110,
            "DD": 5111,
            "ä¹°": 5112,
            "info": 5113,
            "e-": 5114,
            "è¾ĵ": 5115,
            "UM": 5116,
            "éĤĬ": 5117,
            "Ġ~": 5118,
            "ç¯Ģ": 5119,
            "Ġkub": 5120,
            "Ġcount": 5121,
            "Et": 5122,
            "Ġthings": 5123,
            "CE": 5124,
            "åĩºçİ°": 5125,
            "Ġalready": 5126,
            "Ġcan't": 5127,
            "åıªæĺ¯": 5128,
            "icia": 5129,
            "urt": 5130,
            "idence": 5131,
            "çį²": 5132,
            "Ġpoints": 5133,
            "è§Ģ": 5134,
            "ught": 5135,
            "Hand": 5136,
            "Ġwhy": 5137,
            "Ind": 5138,
            "åľ£": 5139,
            "åħ·æľī": 5140,
            "è¿½": 5141,
            "éĶĻ": 5142,
            "ĠAir": 5143,
            "Ġclear": 5144,
            "ega": 5145,
            "/12": 5146,
            "éĢłæĪĲ": 5147,
            "alis": 5148,
            "ç´ļ": 5149,
            "åıĤåĬł": 5150,
            "A/": 5151,
            "Co": 5152,
            "éİ®": 5153,
            "Ġserver": 5154,
            "è¨Ĭ": 5155,
            "emble": 5156,
            "101": 5157,
            "ober": 5158,
            "åŁİå¸Ĥ": 5159,
            "ury": 5160,
            "éĻ½": 5161,
            "åĲ¸": 5162,
            "Ġwar": 5163,
            "Ġdisplay": 5164,
            "åĬłå¼º": 5165,
            "å¤ı": 5166,
            "rier": 5167,
            "é¾į": 5168,
            "å²ģ": 5169,
            "Ġstyle": 5170,
            "Ġshall": 5171,
            "ipp": 5172,
            "Node": 5173,
            "main": 5174,
            "ĠFil": 5175,
            "ç§ģ": 5176,
            "avid": 5177,
            "åıªæľī": 5178,
            "Å¡": 5179,
            "æª": 5180,
            "05": 5181,
            "ĠSup": 5182,
            "æ¸©": 5183,
            "Table": 5184,
            "mad": 5185,
            "åĮĹäº¬": 5186,
            "ĠTH": 5187,
            "åĲĽ": 5188,
            "ä¿ĥè¿Ľ": 5189,
            "æ··åĲĪ": 5190,
            "åĨł": 5191,
            "æıĲäº¤": 5192,
            "ague": 5193,
            "apar": 5194,
            "-200": 5195,
            "æ±º": 5196,
            "MS": 5197,
            "æ¿Ģ": 5198,
            "æľīæķĪ": 5199,
            "ĠInter": 5200,
            "ns": 5201,
            "æĪı": 5202,
            "Ġsea": 5203,
            "Manager": 5204,
            "Ġalways": 5205,
            "ä½Ļ": 5206,
            "alla": 5207,
            "emin": 5208,
            "js": 5209,
            "è§£åĨ³": 5210,
            "åĳ³": 5211,
            "ĠMus": 5212,
            "Ġdevelopment": 5213,
            "quis": 5214,
            "å¦Ī": 5215,
            "Message": 5216,
            "è¿İ": 5217,
            "gs": 5218,
            "ĠDa": 5219,
            "æĪĲåĬŁ": 5220,
            "venir": 5221,
            "ï¼İ": 5222,
            "å¾ģ": 5223,
            "å¼·": 5224,
            "æ¶ī": 5225,
            "Dia": 5226,
            "ä¸¾è¡Į": 5227,
            "Ġ37": 5228,
            "ĠHar": 5229,
            "yr": 5230,
            "ĠÂł": 5231,
            "æĵĬ": 5232,
            "ĠFin": 5233,
            "ä¼Ļ": 5234,
            "agement": 5235,
            "Out": 5236,
            "äº«": 5237,
            "Ġhaving": 5238,
            "ĠBen": 5239,
            "åĶ±": 5240,
            "è¡ĵ": 5241,
            "ĠÐ²": 5242,
            "igen": 5243,
            "ĠGer": 5244,
            "Ġdone": 5245,
            "éĸĭå§ĭ": 5246,
            "ĠSol": 5247,
            "æĸ°çļĦ": 5248,
            "Param": 5249,
            "åıĸå¾Ĺ": 5250,
            "itte": 5251,
            "vier": 5252,
            "[1]": 5253,
            "rek": 5254,
            "æį¢": 5255,
            "Ġfront": 5256,
            "Ġpast": 5257,
            "è¿ĺæĺ¯": 5258,
            "mail": 5259,
            "çĽ´æİ¥": 5260,
            "Ġkind": 5261,
            "åĶĲ": 5262,
            "Ġwrite": 5263,
            "éĥ¨éĹ¨": 5264,
            "color": 5265,
            "vest": 5266,
            "94": 5267,
            "organ": 5268,
            "ĠKe": 5269,
            "xx": 5270,
            "ardo": 5271,
            "anch": 5272,
            "çļĦäºĭ": 5273,
            "Image": 5274,
            "æĦ¿": 5275,
            "è´¸": 5276,
            "æĭľ": 5277,
            "è¯»": 5278,
            "åĶ®": 5279,
            "true": 5280,
            "åħ¬çº¦ãĢĭ": 5281,
            "raft": 5282,
            "igned": 5283,
            "é§": 5284,
            "nis": 5285,
            "é¡µ": 5286,
            "Para": 5287,
            "Ġtour": 5288,
            "-G": 5289,
            "arry": 5290,
            "pri": 5291,
            "Reg": 5292,
            "body": 5293,
            "Inter": 5294,
            "ESS": 5295,
            "ights": 5296,
            "Ġauto": 5297,
            "Ġsession": 5298,
            "Ġcopy": 5299,
            "aste": 5300,
            "NS": 5301,
            "Ġyou're": 5302,
            "Ġnever": 5303,
            "nat": 5304,
            "Ġ+=": 5305,
            "èĲ¨": 5306,
            "åĪ©çĶ¨": 5307,
            "ĠCOVID-19": 5308,
            "conn": 5309,
            "Ġquestions": 5310,
            "Ġthing": 5311,
            "ky": 5312,
            "åĪļ": 5313,
            "åıĹåĪ°": 5314,
            "æĿ¾": 5315,
            "ought": 5316,
            "ç´Ģ": 5317,
            "ç¨ĭåºı": 5318,
            "éĢĻåĢĭ": 5319,
            "ĠDia": 5320,
            "æĦĽ": 5321,
            "ĠAz": 5322,
            "ĠIndia": 5323,
            "/3": 5324,
            "bb": 5325,
            "Do": 5326,
            "Box": 5327,
            "DO": 5328,
            "iny": 5329,
            "å³¶": 5330,
            "wat": 5331,
            "èĻĳ": 5332,
            "è¤ĩ": 5333,
            "æİ¥åıĹ": 5334,
            "èĩ£": 5335,
            "acy": 5336,
            "ĠUs": 5337,
            "Ġ38": 5338,
            "Ġmodern": 5339,
            "äºĳ": 5340,
            "æĻº": 5341,
            "è¿ĻéĩĮ": 5342,
            "ç´ħ": 5343,
            "=\\": 5344,
            "Ġinstance": 5345,
            "ç¬¦": 5346,
            "Ġrow": 5347,
            "Sub": 5348,
            "-r": 5349,
            "ĠLas": 5350,
            "cn": 5351,
            "Ġ48": 5352,
            "å¤ĦçĲĨ": 5353,
            "izon": 5354,
            "With": 5355,
            "Trans": 5356,
            "èĢ³": 5357,
            "Ġworks": 5358,
            "åį´": 5359,
            "ĠEuropean": 5360,
            "izi": 5361,
            "ç§ĺä¹¦éķ¿": 5362,
            "eur": 5363,
            "Ġforce": 5364,
            "Ġtimes": 5365,
            ")Ġ": 5366,
            "ĠPass": 5367,
            "Ġkeep": 5368,
            "É¡": 5369,
            "ä¼ģä¸ļ": 5370,
            "å®ŀçİ°": 5371,
            "Ġmeet": 5372,
            "EX": 5373,
            "éĽ¢": 5374,
            "è´Łè´£": 5375,
            "otal": 5376,
            "uted": 5377,
            "Ġside": 5378,
            "Ġmatch": 5379,
            "anan": 5380,
            "éĽĦ": 5381,
            "ä¹ĭåīį": 5382,
            "AK": 5383,
            "Ã«": 5384,
            "æŃ¦åĻ¨": 5385,
            "Ġ->": 5386,
            "span": 5387,
            "ä¼´": 5388,
            "equ": 5389,
            "Us": 5390,
            "event": 5391,
            "æĸĩåŃĹ": 5392,
            "ilt": 5393,
            "04": 5394,
            "Ġland": 5395,
            "ĠAnt": 5396,
            "Ġtalk": 5397,
            "Ġcourse": 5398,
            "inar": 5399,
            "bas": 5400,
            "ç»Ŀ": 5401,
            "Os": 5402,
            "å¤§åŃ¸": 5403,
            "è®ĵ": 5404,
            "éĤ¦": 5405,
            "Ġbias": 5406,
            "åĬłåħ¥": 5407,
            "osta": 5408,
            "illo": 5409,
            "ĠGet": 5410,
            "çĸĳ": 5411,
            "ĠFac": 5412,
            "âĢĭ": 5413,
            "èª¿": 5414,
            "ops": 5415,
            "label": 5416,
            "Button": 5417,
            "æĳ©": 5418,
            "isc": 5419,
            "Ġterms": 5420,
            "å°¤": 5421,
            "ä½łä»¬": 5422,
            "onia": 5423,
            "è¿ĺæľī": 5424,
            "ĠLet": 5425,
            "æĸ¯åĿ¦": 5426,
            "UP": 5427,
            "åŃĹ:": 5428,
            "max": 5429,
            "Ġpermit": 5430,
            "ĠBas": 5431,
            "Query": 5432,
            "é²ģ": 5433,
            "é¹": 5434,
            "andom": 5435,
            "çīĽ": 5436,
            "Ð³": 5437,
            "æĿ¥çļĦ": 5438,
            "using": 5439,
            "center": 5440,
            "FFFF": 5441,
            "âĢ¿": 5442,
            "å¼¹": 5443,
            "ĠJun": 5444,
            "Ġinterest": 5445,
            "ĠComp": 5446,
            "Ġaddress": 5447,
            "uns": 5448,
            "ility": 5449,
            "ĠSam": 5450,
            "ä¸¤ä¸ª": 5451,
            "æĤ¨": 5452,
            "åıĳçİ°": 5453,
            "ç·¨": 5454,
            "erts": 5455,
            "ĠWorld": 5456,
            "Ġ1998": 5457,
            "çĦ¶åĲİ": 5458,
            "åĬ³": 5459,
            "eka": 5460,
            "æŀĲ": 5461,
            "};": 5462,
            "with": 5463,
            "rot": 5464,
            "èĤ¯": 5465,
            "æľĭ": 5466,
            "day": 5467,
            "uncil": 5468,
            "orts": 5469,
            "ĠGroup": 5470,
            "where": 5471,
            "Äĵ": 5472,
            "ĠAut": 5473,
            "PE": 5474,
            "aim": 5475,
            "åį·": 5476,
            "Ġ/*": 5477,
            "03": 5478,
            "ĠAC": 5479,
            "åĨħå®¹": 5480,
            "avel": 5481,
            "Ġfull": 5482,
            "éĢĲ": 5483,
            "ted": 5484,
            "/2021": 5485,
            "Ġ000": 5486,
            "arning": 5487,
            "Ð¾Ð²": 5488,
            "æ³ķéĻ¢": 5489,
            "éļ¨": 5490,
            "omme": 5491,
            "93": 5492,
            "è®¸å¤ļ": 5493,
            "oke": 5494,
            "æľĹ": 5495,
            "ĠAk": 5496,
            "ÑĪ": 5497,
            "Ġless": 5498,
            "\\b": 5499,
            "å¯¹äºİ": 5500,
            "åĪ»": 5501,
            "-g": 5502,
            "ĠForm": 5503,
            "Ġanswer": 5504,
            "agne": 5505,
            "ared": 5506,
            "Îµ": 5507,
            "unter": 5508,
            "rar": 5509,
            "ĠChrist": 5510,
            "append": 5511,
            "Config": 5512,
            "æ¦Ĥ": 5513,
            "ä¾µ": 5514,
            "Ġsix": 5515,
            "æĪĲçĤº": 5516,
            "ä¾ĭå¦Ĥ": 5517,
            "Ġstructure": 5518,
            "å¹¾": 5519,
            "orio": 5520,
            "omas": 5521,
            "ÂłÂł": 5522,
            "Ġbody": 5523,
            "ried": 5524,
            "æŃ£åľ¨": 5525,
            "Ġ///": 5526,
            "aller": 5527,
            "ĠBB": 5528,
            "Service": 5529,
            "èĪĪ": 5530,
            "åºĦ": 5531,
            "2007": 5532,
            "ä½³": 5533,
            "198": 5534,
            "åĢĴ": 5535,
            "Ġ55": 5536,
            "ogn": 5537,
            "å®ļçļĦ": 5538,
            "èĤī": 5539,
            "Ġlow": 5540,
            "activ": 5541,
            "æĮĩåĩº": 5542,
            "æĵļ": 5543,
            "èľ": 5544,
            "-L": 5545,
            "eler": 5546,
            "Ġ\"\"": 5547,
            "Ġresponse": 5548,
            "92": 5549,
            "ä¸Ģæ¬¡": 5550,
            "åįĪ": 5551,
            "Ġhost": 5552,
            "éĲµ": 5553,
            "Ġfew": 5554,
            "ators": 5555,
            "ĠMet": 5556,
            "éĩİ": 5557,
            "formation": 5558,
            "Sc": 5559,
            "Ġreb": 5560,
            "ç¿»èŃ¯": 5561,
            "News": 5562,
            "èģ½": 5563,
            "_P": 5564,
            "æ°ĳä¸»": 5565,
            "dom": 5566,
            "!!": 5567,
            "Ġbook": 5568,
            "é»ĥ": 5569,
            "Ġsearch": 5570,
            "Ġlight": 5571,
            "Ġdoing": 5572,
            "Ġchildren": 5573,
            "èĥ½å¤Ł": 5574,
            "III": 5575,
            "oo": 5576,
            "Count": 5577,
            "èĻ½": 5578,
            "Ġä¸į": 5579,
            "2æľĪ": 5580,
            "+1": 5581,
            "nov": 5582,
            "_1": 5583,
            "mm": 5584,
            "éĶĢ": 5585,
            "åĽº": 5586,
            "ÃŁ": 5587,
            "wards": 5588,
            "nal": 5589,
            "ĠWill": 5590,
            "Ġcannot": 5591,
            "å¤§å®¶": 5592,
            "çĸ¾": 5593,
            "ĠRed": 5594,
            "Ġhard": 5595,
            "Ġstudy": 5596,
            "PT": 5597,
            "éĻĪ": 5598,
            "-de": 5599,
            "Request": 5600,
            "=0": 5601,
            "pass": 5602,
            "èīº": 5603,
            "ifi": 5604,
            "ä¸ªäºº": 5605,
            "script": 5606,
            "Ġissue": 5607,
            "è´Ń": 5608,
            "vec": 5609,
            "From": 5610,
            "title": 5611,
            "Ġcause": 5612,
            "emu": 5613,
            "Ġvisit": 5614,
            "Ġterm": 5615,
            "Ġé¦Ļæ¸¯": 5616,
            "ç©¿": 5617,
            "åı·åĨ³è®®": 5618,
            "ĠAy": 5619,
            "Ġlaw": 5620,
            "ĠNULL": 5621,
            "éļľ": 5622,
            "ĠAdd": 5623,
            "Î²": 5624,
            "ysis": 5625,
            "åĽłçĤº": 5626,
            "æŁĵ": 5627,
            "Ġoption": 5628,
            "Result": 5629,
            "ĠRam": 5630,
            "}}}": 5631,
            "ä¸ĢæŃ¥": 5632,
            "æĵį": 5633,
            "hub": 5634,
            "ĠLu": 5635,
            "Ġsays": 5636,
            "ç¡®ä¿Ŀ": 5637,
            "pring": 5638,
            "åħ±åĲĮ": 5639,
            "usion": 5640,
            "ä¼ĳ": 5641,
            "Ġ42": 5642,
            "_type": 5643,
            "ffer": 5644,
            "æ¢ħ": 5645,
            "Ġmac": 5646,
            "è®¾è®¡": 5647,
            "witch": 5648,
            "ĠKar": 5649,
            "Ġcountry": 5650,
            "asing": 5651,
            "å¹³æĸ¹åħ¬éĩĮ": 5652,
            "\"S": 5653,
            "=1": 5654,
            "Rep": 5655,
            "usa": 5656,
            "Ġid=\"": 5657,
            "rou": 5658,
            "æ¥¼": 5659,
            "-A": 5660,
            "enh": 5661,
            "..Ċ": 5662,
            "éģ¿": 5663,
            "èĽĭ": 5664,
            "Ã¦": 5665,
            "onc": 5666,
            "åŁºç¡": 5667,
            "éħ¸": 5668,
            "é³": 5669,
            "Ġrights": 5670,
            "XX": 5671,
            "-D": 5672,
            "pression": 5673,
            "è®²": 5674,
            "èĢĥèĻĳ": 5675,
            "åŁºç¡Ģ": 5676,
            "é±": 5677,
            "ination": 5678,
            "Ġrequire": 5679,
            "outer": 5680,
            "Ġ\"M": 5681,
            "å®¶åºŃ": 5682,
            "ability": 5683,
            "Ur": 5684,
            "éģĬ": 5685,
            "tion": 5686,
            "ĠMat": 5687,
            "ĠEle": 5688,
            "çĹĽ": 5689,
            "æľĭåıĭ": 5690,
            "ĠThat": 5691,
            "actory": 5692,
            "ĠâĨĲ": 5693,
            "miss": 5694,
            "æĺ¯åĲ¦": 5695,
            "Ġcommon": 5696,
            "ÑĨ": 5697,
            "Ã°": 5698,
            "ä½įäºİ": 5699,
            "apo": 5700,
            "Inst": 5701,
            "å¼Ģåıĳ": 5702,
            "Ð²Ð°": 5703,
            "_re": 5704,
            "ĠGar": 5705,
            "æıĲé«ĺ": 5706,
            "æĭį": 5707,
            "ĠThey": 5708,
            "ä¹¡": 5709,
            "ĠâĻ": 5710,
            "-12": 5711,
            "ä¹ĺ": 5712,
            "é¼ĵ": 5713,
            "dat": 5714,
            "hu": 5715,
            "ĠSaint": 5716,
            "Ġcare": 5717,
            "iving": 5718,
            "dia": 5719,
            "-10": 5720,
            "Ġname=\"": 5721,
            "umi": 5722,
            "å½¢å¼ı": 5723,
            "Ġspace": 5724,
            "09": 5725,
            "CR": 5726,
            "åħĦ": 5727,
            "ĠMc": 5728,
            "çļĦå·¥ä½ľ": 5729,
            "len": 5730,
            "uki": 5731,
            "Ġcity": 5732,
            "èĥ¡": 5733,
            "æı´åĬ©": 5734,
            "icon": 5735,
            "Line": 5736,
            "pg": 5737,
            "Ġsw": 5738,
            "ç´§": 5739,
            "esto": 5740,
            "_F": 5741,
            "é¦Ĩ": 5742,
            "è¯Ń:": 5743,
            "================": 5744,
            "volution": 5745,
            "çĹĩ": 5746,
            "ĠCamp": 5747,
            "Î¹": 5748,
            "try": 5749,
            "å¥ĸ": 5750,
            "Ġ()": 5751,
            "çľĭåĪ°": 5752,
            "æĢ§çļĦ": 5753,
            "nu": 5754,
            "08": 5755,
            "ä½ľåĩº": 5756,
            "Ġstatus": 5757,
            "ĠSocial": 5758,
            "-H": 5759,
            "åľĭå®¶": 5760,
            "çłģ": 5761,
            "ood": 5762,
            "eral": 5763,
            "å»ºè®¾": 5764,
            "mission": 5765,
            "æįŁ": 5766,
            "Ġsoftware": 5767,
            "æĸĹ": 5768,
            "èĺĩ": 5769,
            "wak": 5770,
            "ering": 5771,
            "èĩªçĦ¶": 5772,
            "å®ĭ": 5773,
            "æİ¢": 5774,
            "åľĴ": 5775,
            "èģĸ": 5776,
            "åĤ³çµ±": 5777,
            "ĠReal": 5778,
            "åį»": 5779,
            "ford": 5780,
            "Color": 5781,
            "ç»ľ": 5782,
            "war": 5783,
            "udes": 5784,
            "Ġ44": 5785,
            "imer": 5786,
            "now": 5787,
            "åĽ°": 5788,
            "è´§": 5789,
            "ĠTrump": 5790,
            "AA": 5791,
            "å®Įåħ¨": 5792,
            "pha": 5793,
            "Wh": 5794,
            "Ġshort": 5795,
            "cd": 5796,
            "Ġï": 5797,
            "éĽħ": 5798,
            "å§Ĳ": 5799,
            "ĠéĢļ": 5800,
            "ĠBa": 5801,
            "idar": 5802,
            "300": 5803,
            "Ñħ": 5804,
            "è¸": 5805,
            "Ġleast": 5806,
            "åľ°åįĢ": 5807,
            "Ez": 5808,
            "into": 5809,
            "oms": 5810,
            "ively": 5811,
            ")(": 5812,
            "_st": 5813,
            "ĠAug": 5814,
            "ĠçļĦ": 5815,
            "Ġ75": 5816,
            "ä¸Ĭæµ·": 5817,
            "ä¼¦": 5818,
            "é»İ": 5819,
            "è°ĥæŁ¥": 5820,
            "essa": 5821,
            "annel": 5822,
            "ĠMag": 5823,
            "alian": 5824,
            "å°Ĭ": 5825,
            "itation": 5826,
            "md": 5827,
            "æĮģç»Ń": 5828,
            "çĪĨ": 5829,
            "/2000": 5830,
            "ĠSanta": 5831,
            "find": 5832,
            "ĠBol": 5833,
            "ocation": 5834,
            "hab": 5835,
            "ĠMah": 5836,
            "åºĵ": 5837,
            "_B": 5838,
            "ington": 5839,
            "ĠArt": 5840,
            ":30": 5841,
            "åªĴ": 5842,
            "inan": 5843,
            "éĻ³": 5844,
            "ãĦ§": 5845,
            "æ±īåŃĹ": 5846,
            "Ġrange": 5847,
            "-6": 5848,
            "Ġcontinue": 5849,
            "è¾¦": 5850,
            "å®ĥä»¬": 5851,
            "MA": 5852,
            "aco": 5853,
            "Ġcountries": 5854,
            "åİŁåĽł": 5855,
            "ĠUniversity": 5856,
            "ĠNom": 5857,
            "çĶ¨äºİ": 5858,
            "æ¿Ł": 5859,
            "button": 5860,
            "uge": 5861,
            "åĮĹæĸ¹": 5862,
            "å°ıç»Ħ": 5863,
            "eca": 5864,
            "Layout": 5865,
            "Fil": 5866,
            "çŃ¾": 5867,
            "Dan": 5868,
            "91": 5869,
            "resh": 5870,
            "App": 5871,
            "cel": 5872,
            "Pol": 5873,
            "ĠIa": 5874,
            "èģ·": 5875,
            "ags": 5876,
            "rin": 5877,
            "æŃ¤å¤ĸ": 5878,
            "There": 5879,
            "oute": 5880,
            "edit": 5881,
            "06": 5882,
            "å®ŀæĸ½": 5883,
            "é¡¾": 5884,
            "ross": 5885,
            "Ġ^": 5886,
            "-16": 5887,
            "åĨ·": 5888,
            "ological": 5889,
            "äºĭä»¶": 5890,
            "çĶŁäº§": 5891,
            "äºĮåįģ": 5892,
            "Ġtell": 5893,
            "è¿Ľåħ¥": 5894,
            "Group": 5895,
            "çļĨ": 5896,
            "è°ļ": 5897,
            "ĠList": 5898,
            "NE": 5899,
            "izer": 5900,
            "ËĬ": 5901,
            "Ġnode": 5902,
            "éĽ£": 5903,
            "è§ĦèĮĥ": 5904,
            "åĪ©äºļ": 5905,
            "iddle": 5906,
            "ters": 5907,
            "Ġãģ": 5908,
            "prot": 5909,
            "ĠGal": 5910,
            "ĠRod": 5911,
            "hr": 5912,
            "Ġaccount": 5913,
            "æ®º": 5914,
            "èįīæ¡Ī": 5915,
            "éĿŀæ´²": 5916,
            "é¢ĨåŁŁ": 5917,
            "ç§Ģ": 5918,
            "ĠÐ´": 5919,
            "ips": 5920,
            "dev": 5921,
            "Ġadj": 5922,
            "Fl": 5923,
            "åĲĦç§į": 5924,
            "çµĤ": 5925,
            "ç´į": 5926,
            "Esp": 5927,
            "Action": 5928,
            "ĠPP": 5929,
            "æŃ·": 5930,
            "rog": 5931,
            "ä¸įåı¯": 5932,
            "ä¸Ģå®ļ": 5933,
            "Eu": 5934,
            "private": 5935,
            "_b": 5936,
            "Ser": 5937,
            "ĠPan": 5938,
            "van": 5939,
            "å¸Ĥåľº": 5940,
            "ĠHal": 5941,
            "æľ«": 5942,
            "ĠPre": 5943,
            "arian": 5944,
            "amat": 5945,
            "oken": 5946,
            "_D": 5947,
            "ored": 5948,
            "èµĦæĸĻ": 5949,
            "RI": 5950,
            "æī©": 5951,
            "ä¹ĥ": 5952,
            "éĿł": 5953,
            "Ġunit": 5954,
            "åįıè°ĥ": 5955,
            "Ġnova": 5956,
            "Ġcondition": 5957,
            "ang-": 5958,
            "ĠBal": 5959,
            "Ġauthor": 5960,
            "çĪŃ": 5961,
            "acia": 5962,
            "ĠId": 5963,
            "åĪ¶åº¦": 5964,
            "Ġlength": 5965,
            "Ġreason": 5966,
            "ĠID": 5967,
            "æĤ£": 5968,
            "change": 5969,
            "apor": 5970,
            "rh": 5971,
            "Ġclub": 5972,
            "-a": 5973,
            "urb": 5974,
            "äºĭåĬ¡": 5975,
            "çļĦå¤§": 5976,
            "Ġ47": 5977,
            "Ġcenter": 5978,
            "èĢ¶": 5979,
            "Ġinclude": 5980,
            "çĦ¶èĢĮ": 5981,
            "used": 5982,
            "num": 5983,
            "enso": 5984,
            "Code": 5985,
            "Ġsection": 5986,
            "lev": 5987,
            "ĠIns": 5988,
            "æĪĺçķ¥": 5989,
            "ä»»åĬ¡": 5990,
            "ills": 5991,
            "Ġ43": 5992,
            "ãĢĢãĢĢ": 5993,
            "ç©į": 5994,
            "éĤ£ä¹Ī": 5995,
            "asta": 5996,
            "Ġmonth": 5997,
            "ÏĦ": 5998,
            "å²¸": 5999,
            "ÑĢÐ¸": 6000,
            "MC": 6001,
            "format": 6002,
            "Ġip": 6003,
            "éĹ»": 6004,
            "å®ľ": 6005,
            "emi": 6006,
            "éĢĻäºĽ": 6007,
            "è¡¨è®°": 6008,
            "down": 6009,
            "img": 6010,
            "ierre": 6011,
            "åŃ¦æł¡": 6012,
            "è©¦": 6013,
            "åĪĨæŀĲ": 6014,
            "Ġquery": 6015,
            "EST": 6016,
            "********************************": 6017,
            "oney": 6018,
            "Ġupdate": 6019,
            "Oh": 6020,
            "ĠSab": 6021,
            "illed": 6022,
            "Ġ46": 6023,
            "åł¡": 6024,
            "å¯º": 6025,
            "ĠInternational": 6026,
            "ĠKal": 6027,
            "berg": 6028,
            "Stream": 6029,
            "äº§çĶŁ": 6030,
            "éĽ¨": 6031,
            "Block": 6032,
            "æĽ¿": 6033,
            "ROM": 6034,
            "Ð½Ð°": 6035,
            "Ġhealth": 6036,
            "eres": 6037,
            "è¿Ķ": 6038,
            "ĠWhen": 6039,
            "Ag": 6040,
            "Ġknown": 6041,
            "è´Ŀ": 6042,
            "Ġ09": 6043,
            "ĠÐ¸": 6044,
            "local": 6045,
            "åĺī": 6046,
            "èĭ¦": 6047,
            "ĠâĢĭ": 6048,
            "èı²": 6049,
            "è¯¢": 6050,
            "è·Ŀ": 6051,
            "isco": 6052,
            "è¿ĲåĬ¨": 6053,
            "Ïģ": 6054,
            "è£½": 6055,
            "æľĢé«ĺ": 6056,
            "Ġproperty": 6057,
            "æĭĽ": 6058,
            "Ġstop": 6059,
            "åĿĢ": 6060,
            "_h": 6061,
            "-T": 6062,
            "å±ĭ": 6063,
            "éĤ£äºĽ": 6064,
            "-9": 6065,
            "KI": 6066,
            "ÑĢÐµ": 6067,
            "din": 6068,
            "server": 6069,
            "tage": 6070,
            "2009å¹´": 6071,
            "hui": 6072,
            "ĠAle": 6073,
            "^2": 6074,
            "nb": 6075,
            "ĠClass": 6076,
            "RA": 6077,
            "false": 6078,
            "æİī": 6079,
            "-01": 6080,
            "ï¼ŁãĢį": 6081,
            "ç§ĳåŃ¦": 6082,
            "-N": 6083,
            "erse": 6084,
            "options": 6085,
            "æ¤į": 6086,
            "å½ĵæĹ¶": 6087,
            "æ´Ĺ": 6088,
            "èĪŀ": 6089,
            "umen": 6090,
            "ĠSecret": 6091,
            "éĢ²è¡Į": 6092,
            "ĠInt": 6093,
            "ĠTV": 6094,
            "ç³»åĪĹ": 6095,
            "Ġfuture": 6096,
            "cop": 6097,
            "éĩĬ": 6098,
            "æ°ĳæĹı": 6099,
            "orpor": 6100,
            "ä½ľåĵģ": 6101,
            "pace": 6102,
            "Ut": 6103,
            "å¼Ģå±ķ": 6104,
            "Ġonline": 6105,
            "Ġyet": 6106,
            "Bu": 6107,
            "current": 6108,
            "Ġ49": 6109,
            "åīµ": 6110,
            "ento": 6111,
            "unch": 6112,
            "time": 6113,
            "æĽ´å¤ļ": 6114,
            "gre": 6115,
            "onte": 6116,
            "ĠVol": 6117,
            "ev": 6118,
            "æĹłæ³ķ": 6119,
            "åħ¼": 6120,
            "å¯«": 6121,
            "åı¦å¤ĸ": 6122,
            "åı¥": 6123,
            "Ġwomen": 6124,
            "éº»": 6125,
            "Ġnetwork": 6126,
            "åĪº": 6127,
            "é£Ľ": 6128,
            "Ġsrc": 6129,
            "å¼Ĥ": 6130,
            "å°¼äºļ": 6131,
            "éĶ®": 6132,
            "sin": 6133,
            "anes": 6134,
            "Ġpopulation": 6135,
            "layout": 6136,
            "è³ª": 6137,
            "icient": 6138,
            "å®¡æŁ¥": 6139,
            "195": 6140,
            "ditional": 6141,
            "omes": 6142,
            "ATE": 6143,
            "s_": 6144,
            "ä¹Łä¸į": 6145,
            "BL": 6146,
            "Ġonce": 6147,
            "Ġ),": 6148,
            "è½¯": 6149,
            "å¾©": 6150,
            "ĠåĽ½": 6151,
            "thers": 6152,
            "ç¼Ķçº¦åĽ½": 6153,
            "ĠRom": 6154,
            "cat": 6155,
            "è£Ŀ": 6156,
            "ä»ģ": 6157,
            "Select": 6158,
            "åĿļ": 6159,
            "è®¨è®º": 6160,
            "åĬŁèĥ½": 6161,
            "Edit": 6162,
            "çĥĪ": 6163,
            "assert": 6164,
            "åĤĻ": 6165,
            "éĢĶ": 6166,
            "Ġweek": 6167,
            "Now": 6168,
            "Ġhope": 6169,
            "æĭĶ": 6170,
            "æĽ°ï¼ļãĢĮ": 6171,
            "ç»ĵæŀľ": 6172,
            "Ġâĺ": 6173,
            "çļĦæĹ¶åĢĻ": 6174,
            "uring": 6175,
            "æĹ¢": 6176,
            "2008å¹´": 6177,
            "æĭŁ": 6178,
            "bor": 6179,
            "ams": 6180,
            "ĠHer": 6181,
            "context": 6182,
            "/L": 6183,
            "CM": 6184,
            "åı¬": 6185,
            "active": 6186,
            "å¹¶ä¸Ķ": 6187,
            "Ġaccept": 6188,
            "ä¹Į": 6189,
            "ĠCour": 6190,
            "i:": 6191,
            "çºĮ": 6192,
            "åħ¨åĽ½": 6193,
            "é±¼": 6194,
            "Ġpaper": 6195,
            "ä½įæĸ¼": 6196,
            "ä¸Ģæł·": 6197,
            "aly": 6198,
            "æħ¢": 6199,
            "xml": 6200,
            "ĠData": 6201,
            "long": 6202,
            "EF": 6203,
            "ĠPo": 6204,
            "Ġconnect": 6205,
            "aged": 6206,
            "_N": 6207,
            "bin": 6208,
            "çļĦæĥħåĨµ": 6209,
            "-11": 6210,
            "Ġ41": 6211,
            "Ġax": 6212,
            "Ġorigin": 6213,
            "unk": 6214,
            "Ġspecial": 6215,
            "erk": 6216,
            "Ġtreat": 6217,
            "ĠXV": 6218,
            "default": 6219,
            "height": 6220,
            "/m": 6221,
            "å¹´çļĦ": 6222,
            "ç¡®å®ļ": 6223,
            "usta": 6224,
            "Ġinstall": 6225,
            "èĻ½çĦ¶": 6226,
            "OC": 6227,
            "Ġhold": 6228,
            "https://": 6229,
            "é¤¨": 6230,
            "ĠPel": 6231,
            "ĠMel": 6232,
            "çĽĺ": 6233,
            "èİ±": 6234,
            "NN": 6235,
            "ports": 6236,
            "éĩįæĸ°": 6237,
            "å¸®åĬ©": 6238,
            "iah": 6239,
            "Ġsave": 6240,
            "ĠSil": 6241,
            "ris": 6242,
            "07": 6243,
            "Ġmode": 6244,
            "rap": 6245,
            "ĠSurvey": 6246,
            "èıľ": 6247,
            "éĦī": 6248,
            "æĮĳ": 6249,
            "ĠCity": 6250,
            "roy": 6251,
            "çµ±ä¸Ģ": 6252,
            "Ġbin": 6253,
            "Sen": 6254,
            "IF": 6255,
            "rer": 6256,
            "mand": 6257,
            "è¦ı": 6258,
            "åį°åº¦": 6259,
            "ei": 6260,
            "å¥Ĺ": 6261,
            "lease": 6262,
            "tai": 6263,
            "Ġ65": 6264,
            "æĬķèµĦ": 6265,
            "éľ²": 6266,
            "ĠIPA": 6267,
            "ĠLong": 6268,
            "èģļ": 6269,
            "æ¾³éĹ¨": 6270,
            "éĴĪ": 6271,
            "ĠDavid": 6272,
            "éª¨": 6273,
            "Comp": 6274,
            "äº§åĵģ": 6275,
            "/4": 6276,
            "block": 6277,
            "åĢŁ": 6278,
            "ving": 6279,
            "çĶļèĩ³": 6280,
            "Ġword": 6281,
            "ç¯ĩ": 6282,
            "ĠState": 6283,
            "Str": 6284,
            "Ã¼r": 6285,
            "via": 6286,
            "otes": 6287,
            "alle": 6288,
            "éĻ¸": 6289,
            "Ġ-1": 6290,
            "Ġ\"B": 6291,
            "åİħ": 6292,
            "æįķ": 6293,
            "/03": 6294,
            "ĠStr": 6295,
            "aurus": 6296,
            "Ġaway": 6297,
            "çĽĽ": 6298,
            "ibility": 6299,
            "ĠRos": 6300,
            "ĠDar": 6301,
            "2000": 6302,
            "ä¸Ģä¸ĭ": 6303,
            "-R": 6304,
            "yan": 6305,
            "ĠSouth": 6306,
            "come": 6307,
            "ĠInternet": 6308,
            "Ġmark": 6309,
            "å¥§": 6310,
            "å¦»": 6311,
            "è¿«": 6312,
            "Ġ150": 6313,
            "Ġgame": 6314,
            "args": 6315,
            "Ġuntil": 6316,
            "Ġ400": 6317,
            "Ġmax": 6318,
            "ç¬¬åįģ": 6319,
            "å¾Ĵ": 6320,
            "è¼ĥ": 6321,
            "ĠSm": 6322,
            "ĠSw": 6323,
            "ĠWest": 6324,
            "Content": 6325,
            "uid": 6326,
            "side": 6327,
            "Å«": 6328,
            "ĠFound": 6329,
            "urer": 6330,
            "Point": 6331,
            "Ġsubject": 6332,
            "Ġ51": 6333,
            "TML": 6334,
            "ĠOne": 6335,
            "éĽ²": 6336,
            "board": 6337,
            "çŀ": 6338,
            "1æĹ¥": 6339,
            "UU": 6340,
            "ä¸įè¿ĩ": 6341,
            "olution": 6342,
            "ln": 6343,
            "ãĢĭçļĦ": 6344,
            "ĉĉĉ": 6345,
            "ĠAlex": 6346,
            "ĠSy": 6347,
            "æĸ¹éĿ¢çļĦ": 6348,
            "éĻ¤äºĨ": 6349,
            "éĴŁ": 6350,
            "2F": 6351,
            "éĺ¶": 6352,
            "itted": 6353,
            "éĽĻ": 6354,
            "ĠMil": 6355,
            "LECT": 6356,
            "Ġdeath": 6357,
            "ython": 6358,
            "ãĢī": 6359,
            "ĠMaria": 6360,
            "å¹¸": 6361,
            "ĠTor": 6362,
            "è´¥": 6363,
            "å¼Ĺ": 6364,
            "riz": 6365,
            "idge": 6366,
            "ĠTa": 6367,
            "èªįçĤº": 6368,
            "write": 6369,
            "æľ±": 6370,
            "ĠFile": 6371,
            "hing": 6372,
            "ç¤¾åĮº": 6373,
            "èĴĤ": 6374,
            "HP": 6375,
            "Ġsignal": 6376,
            "front": 6377,
            "æ¬§æ´²": 6378,
            "èĥŀ": 6379,
            "åĸľæ¬¢": 6380,
            "show": 6381,
            "version": 6382,
            "Ġ08": 6383,
            "çģµ": 6384,
            "NG": 6385,
            "æŃ²": 6386,
            "ANG": 6387,
            "igne": 6388,
            "avi": 6389,
            "Cons": 6390,
            "ãĢĪ": 6391,
            "ĠMes": 6392,
            "ster": 6393,
            "æ¥µ": 6394,
            "Ġwhole": 6395,
            "ç±į": 6396,
            "äº¿": 6397,
            "åļ": 6398,
            "icle": 6399,
            "ç¢¼": 6400,
            "ÐµÑĤ": 6401,
            "Pre": 6402,
            "åĲĦåĽ½": 6403,
            "ç»ĥ": 6404,
            "è¿ĩç¨ĭ": 6405,
            "late": 6406,
            "sos": 6407,
            "éĥİ": 6408,
            "ä¸ºâĢľ": 6409,
            "lean": 6410,
            "asc": 6411,
            "ander": 6412,
            "ĠSee": 6413,
            "åĩºçīĪ": 6414,
            "iler": 6415,
            "æĿ¥èĩª": 6416,
            "aa": 6417,
            "init": 6418,
            "äº®": 6419,
            "ĠCouncil": 6420,
            "000000": 6421,
            "ĠShe": 6422,
            "alls": 6423,
            "ench": 6424,
            "Ġclient": 6425,
            "ç¬¬åĽĽ": 6426,
            "æľīçļĦ": 6427,
            "è¯´æĺİ": 6428,
            "ersion": 6429,
            "actions": 6430,
            "Am": 6431,
            "ĠHor": 6432,
            "ĠImages": 6433,
            "ĠBy": 6434,
            "ĠTu": 6435,
            "EE": 6436,
            "æ¸¸æĪı": 6437,
            "èĮĥåĽ´": 6438,
            "2001å¹´": 6439,
            "When": 6440,
            "temp": 6441,
            "æĿ¡ä»¶": 6442,
            "Âº": 6443,
            "-7": 6444,
            "ĠTP": 6445,
            "å®¡è®®": 6446,
            "hid": 6447,
            "ĠWeb": 6448,
            "Ġâģ": 6449,
            "core": 6450,
            "................": 6451,
            "asis": 6452,
            "eke": 6453,
            "å½¢æĪĲ": 6454,
            "åģ¥åº·": 6455,
            "Play": 6456,
            "Ġdays": 6457,
            "èµŀ": 6458,
            "å¿ħè¦ģ": 6459,
            "/v": 6460,
            "æ¡Ĩ": 6461,
            "ç»į": 6462,
            "éĺ¿æĭī": 6463,
            "ĠBan": 6464,
            "OP": 6465,
            "è´¸æĺĵ": 6466,
            "Ġcard": 6467,
            "âĢ¦âĢ¦": 6468,
            "éĢĥ": 6469,
            "abs": 6470,
            "æ§ĭ": 6471,
            "Bar": 6472,
            "ç¦®": 6473,
            "Conn": 6474,
            "Ġjob": 6475,
            "Ġ64": 6476,
            "åŃ¦çĶŁ": 6477,
            "ï¼īçļĦ": 6478,
            "Ġ1997": 6479,
            "æ¯Ķè¾ĥ": 6480,
            "ĠNational": 6481,
            "Ġtransfer": 6482,
            "åıĬåħ¶": 6483,
            "Ġ1;": 6484,
            "oti": 6485,
            "aci": 6486,
            "ĠTom": 6487,
            "RC": 6488,
            "angle": 6489,
            "Ġâĸ": 6490,
            "nam": 6491,
            "ĠPT": 6492,
            "oe": 6493,
            "å¦ĤæŃ¤": 6494,
            "fn": 6495,
            "åı¦ä¸Ģ": 6496,
            "ĠPhil": 6497,
            "å¹´ä»£": 6498,
            "ç°¡": 6499,
            "æĦıè§ģ": 6500,
            "éĨ«": 6501,
            "open": 6502,
            "è°ģ": 6503,
            "END": 6504,
            "ĠHu": 6505,
            "èµ·æĿ¥": 6506,
            "dir": 6507,
            "Controller": 6508,
            "enis": 6509,
            "å·¨": 6510,
            "çı¾åľ¨": 6511,
            "OA": 6512,
            "å¼±": 6513,
            "site": 6514,
            "/1": 6515,
            "Ġseen": 6516,
            "ç¹ģ": 6517,
            "Ġhttp://www": 6518,
            "åĨ°": 6519,
            "elf": 6520,
            "èŃ·": 6521,
            "Ġcatch": 6522,
            "Ġnote": 6523,
            "âĶ": 6524,
            "ä¸įå¾Ĺ": 6525,
            "éĥ¡": 6526,
            "è®Ģ": 6527,
            "çĬ¯ç½ª": 6528,
            "orde": 6529,
            "content": 6530,
            "UI": 6531,
            "ync": 6532,
            "h\"": 6533,
            "åĬŀæ³ķ": 6534,
            "ä¸½": 6535,
            "é¡¿": 6536,
            "åħ¨éĥ¨": 6537,
            "çĴ°": 6538,
            "oz": 6539,
            "Äį": 6540,
            "ĠApp": 6541,
            "2007å¹´": 6542,
            "5%": 6543,
            "æľīäºº": 6544,
            "That": 6545,
            "Sing": 6546,
            "tn": 6547,
            "duce": 6548,
            "ç§ĭ": 6549,
            "Di": 6550,
            "ĠBing": 6551,
            "*/": 6552,
            "aster": 6553,
            "ĠFig": 6554,
            "DN": 6555,
            "abal": 6556,
            "cons": 6557,
            "æĭ¥": 6558,
            "ä¹ĭå¾Į": 6559,
            "asil": 6560,
            "ety": 6561,
            "éŁ»": 6562,
            "Ġproduction": 6563,
            "éĥ¨éĺŁ": 6564,
            "ĠPaul": 6565,
            "inding": 6566,
            "ç®ĢåĮĸ": 6567,
            "ä¸ľè¥¿": 6568,
            "ç¤¼": 6569,
            "Ġculture": 6570,
            "çĶŁçī©": 6571,
            "Ġtogether": 6572,
            "2006å¹´": 6573,
            "anel": 6574,
            "éłħ": 6575,
            "ĠJean": 6576,
            "Ġbegin": 6577,
            "ä»Ĭå¤©": 6578,
            "Î¼": 6579,
            "Ġtitle": 6580,
            "å®£å¸ĥ": 6581,
            "ĠFC": 6582,
            "abo": 6583,
            "-in": 6584,
            "âĻ": 6585,
            "æĬµ": 6586,
            "andi": 6587,
            "IO": 6588,
            "ej": 6589,
            "graph": 6590,
            "del": 6591,
            "éģł": 6592,
            "å±ŀäºİ": 6593,
            "http://www": 6594,
            "è¡Ľ": 6595,
            "element": 6596,
            "Ġ52": 6597,
            "å°¾": 6598,
            "é«ĺåº¦": 6599,
            "æ¥ļ": 6600,
            "ĠFre": 6601,
            "Ġregion": 6602,
            "åİĨåı²": 6603,
            "éĽĸ": 6604,
            "åįĶ": 6605,
            "æľºä¼ļ": 6606,
            "IK": 6607,
            "aham": 6608,
            "host": 6609,
            "éĽª": 6610,
            "çļĦãĢĬ": 6611,
            "Ġmove": 6612,
            "ÐºÐ°": 6613,
            "see": 6614,
            "çļĦéĹ®é¢ĺ": 6615,
            "é¢Ħç®Ĺ": 6616,
            "æļĹ": 6617,
            "ĠObject": 6618,
            "ç²ī": 6619,
            "roc": 6620,
            "ĠGen": 6621,
            "enge": 6622,
            "æ²»çĸĹ": 6623,
            "End": 6624,
            "Ġist": 6625,
            "obile": 6626,
            "çŃĳ": 6627,
            "Here": 6628,
            "PM": 6629,
            "adro": 6630,
            "ims": 6631,
            "èĥľ": 6632,
            "èµĶ": 6633,
            "æ¶²": 6634,
            "Ġunderstand": 6635,
            "bers": 6636,
            "eras": 6637,
            "aging": 6638,
            "å§ĵ": 6639,
            "ç¨İ": 6640,
            "æ²ĥ": 6641,
            "ova": 6642,
            "ä¸ĵå®¶": 6643,
            "ä¸¥éĩį": 6644,
            "Ġthought": 6645,
            "Ġhit": 6646,
            "-te": 6647,
            "ĠTest": 6648,
            "2005å¹´": 6649,
            "è¿ĩåİ»": 6650,
            "ierra": 6651,
            "km": 6652,
            ")ãĢĤ": 6653,
            "èį·": 6654,
            "WS": 6655,
            "Ġfamily": 6656,
            "Ġfire": 6657,
            "UG": 6658,
            "åĪĺ": 6659,
            "inu": 6660,
            "get_": 6661,
            "Ġscript": 6662,
            "è°·": 6663,
            "ĠRet": 6664,
            "æĹĹ": 6665,
            "è¾ĸ": 6666,
            "ĠCu": 6667,
            "æ¨ĵ": 6668,
            "çį¨": 6669,
            "ĠÐ¾": 6670,
            "Ġtax": 6671,
            "Start": 6672,
            "æŀª": 6673,
            "px;": 6674,
            "Este": 6675,
            "onne": 6676,
            "çĺ": 6677,
            "esc": 6678,
            "Ġwrong": 6679,
            "Ġenergy": 6680,
            "ged": 6681,
            "åįĸ": 6682,
            "atas": 6683,
            "æľīäºĽ": 6684,
            "omm": 6685,
            "Ġmethods": 6686,
            "å½¹": 6687,
            "é¢ĳ": 6688,
            "Ġ\"T": 6689,
            "ials": 6690,
            "æĮ¥": 6691,
            "2010å¹´": 6692,
            "win": 6693,
            "ĠHol": 6694,
            "åĭ¤": 6695,
            "ached": 6696,
            "åħ¨éĿ¢": 6697,
            "åĩıå°ĳ": 6698,
            "åĬĩ": 6699,
            "gos": 6700,
            "irs": 6701,
            "/01": 6702,
            "arrow": 6703,
            "ĠFacebook": 6704,
            "éĵ¶è¡Į": 6705,
            "ĠRel": 6706,
            "ĠTwitter": 6707,
            "BA": 6708,
            "antas": 6709,
            "æ¬²": 6710,
            "è³ĩè¨Ĭ": 6711,
            "xic": 6712,
            "Seb": 6713,
            "esh": 6714,
            "éĺ»": 6715,
            "åıĺåĮĸ": 6716,
            "éĽ»åŃĲ": 6717,
            "ocket": 6718,
            "3]": 6719,
            "ĠNE": 6720,
            "ĠFree": 6721,
            "Ġwon": 6722,
            "Ġfine": 6723,
            "çĶµå½±": 6724,
            "éģį": 6725,
            "chen": 6726,
            "ĠéĢļçĶ¨": 6727,
            "åħ·ä½ĵ": 6728,
            "reas": 6729,
            "è²»": 6730,
            "äºĨè§£": 6731,
            "Ġgrad": 6732,
            "Handler": 6733,
            "HER": 6734,
            "å³°": 6735,
            "etes": 6736,
            "-Un": 6737,
            "ĠLuc": 6738,
            "è¡¨æĦı": 6739,
            "uction": 6740,
            "Ġstrong": 6741,
            "ĠNav": 6742,
            "-18": 6743,
            "hael": 6744,
            "Dec": 6745,
            "å»·": 6746,
            "å®ŀéĻħ": 6747,
            "Ġä¿Ħ": 6748,
            "ikit": 6749,
            "åĿı": 6750,
            "ĠUE": 6751,
            "æĮīçħ§": 6752,
            "å¯¼èĩ´": 6753,
            "æĵĶ": 6754,
            "ĠGod": 6755,
            "Ġthough": 6756,
            "ä»¥ä¸Ĭ": 6757,
            "SON": 6758,
            "Ġamong": 6759,
            "oding": 6760,
            "Ġ54": 6761,
            "ĠEng": 6762,
            "Ġ[]": 6763,
            "~~": 6764,
            "æ´¥": 6765,
            "å¥ī": 6766,
            "jpg": 6767,
            "ĠTak": 6768,
            "Ġrunning": 6769,
            "éĢļå¸¸": 6770,
            "è¿Ľä¸ĢæŃ¥": 6771,
            "ç½ĳç»ľ": 6772,
            "ç¬¬äºĶ": 6773,
            "Check": 6774,
            "anye": 6775,
            "åĳĬè¯ī": 6776,
            "Î»": 6777,
            "Ġmix": 6778,
            "VER": 6779,
            "case": 6780,
            "å°º": 6781,
            "è²ł": 6782,
            "_2": 6783,
            "åĬī": 6784,
            "eller": 6785,
            ":\"": 6786,
            "Ġfeel": 6787,
            "model": 6788,
            "ĠCommittee": 6789,
            "èķ": 6790,
            "éĩĳèŀį": 6791,
            "ĠHa": 6792,
            "Ð»Ð¸": 6793,
            "Ġreference": 6794,
            "è¯¾": 6795,
            "éĿ¢ç§¯": 6796,
            "éĮĦ": 6797,
            "Ġflex": 6798,
            "ĠMerc": 6799,
            "System": 6800,
            "CL": 6801,
            "å®«": 6802,
            "ych": 6803,
            "icar": 6804,
            "Ġì": 6805,
            "tt": 6806,
            "çĪ¸": 6807,
            "Page": 6808,
            "king": 6809,
            "åħ¬åħ±": 6810,
            "iot": 6811,
            "astr": 6812,
            "BS": 6813,
            "ÊĶ": 6814,
            "æİĮ": 6815,
            "/d": 6816,
            "inen": 6817,
            "åŁ¹è®Ń": 6818,
            "è¡¨æĦıæĸĩåŃĹ": 6819,
            "aio": 6820,
            "Listener": 6821,
            "ĠFoundation": 6822,
            "æķ¦": 6823,
            "çļĦæĬ¥åĳĬ": 6824,
            "å¹ķ": 6825,
            "Ġclose": 6826,
            "Ġoften": 6827,
            "lan": 6828,
            "ĠEg": 6829,
            "éģĹ": 6830,
            "æķ¢": 6831,
            "Go": 6832,
            "Ġ53": 6833,
            "2009": 6834,
            "endele": 6835,
            "Ġcompany": 6836,
            "ĠIt's": 6837,
            "æĢª": 6838,
            "å¨ĺ": 6839,
            "Ġlanguage": 6840,
            "196": 6841,
            "Car": 6842,
            "last": 6843,
            "è¦º": 6844,
            "Ġpid": 6845,
            "/j": 6846,
            "æ³Ľ": 6847,
            "mark": 6848,
            "åĶ¯": 6849,
            "quality": 6850,
            "éŃ¯": 6851,
            "Column": 6852,
            "itect": 6853,
            "çļĦä¸Ģä¸ª": 6854,
            "update": 6855,
            "æ±½": 6856,
            "vision": 6857,
            "çĤ¸": 6858,
            "èģĶçĽŁ": 6859,
            "anza": 6860,
            "èµ«": 6861,
            "åĲ¯": 6862,
            "åĴ¨": 6863,
            "iber": 6864,
            "ĠOrgan": 6865,
            "æģ¢": 6866,
            "Ġperfect": 6867,
            "Ïĥ": 6868,
            "attr": 6869,
            "aries": 6870,
            "ä¸ĵä¸ļ": 6871,
            "Ġloop": 6872,
            "compl": 6873,
            "Can": 6874,
            "TER": 6875,
            "ĠKim": 6876,
            "çĽ®çļĦ": 6877,
            "Del": 6878,
            "uke": 6879,
            "å¯¶": 6880,
            "æ²¿": 6881,
            "EO": 6882,
            "å¥³æĢ§": 6883,
            "rig": 6884,
            "çĶ¨çļĦ": 6885,
            "Char": 6886,
            "ands": 6887,
            "å®ģ": 6888,
            "/sh": 6889,
            "èŃ¦å¯Ł": 6890,
            "apit": 6891,
            "ç«¹": 6892,
            "Off": 6893,
            "Ġmicro": 6894,
            "ĠJa": 6895,
            "è®¿": 6896,
            "odi": 6897,
            "æŃĲ": 6898,
            "ĠUnd": 6899,
            "400": 6900,
            "ä¹Łæľī": 6901,
            "ĠSar": 6902,
            "Ġroot": 6903,
            "ending": 6904,
            "Ġimages": 6905,
            "ĠPod": 6906,
            "èĮ¶": 6907,
            "ss": 6908,
            "éŃĶ": 6909,
            "æ¯ķ": 6910,
            "è´£ä»»": 6911,
            "åįĹéĥ¨": 6912,
            "æĸ·": 6913,
            "Property": 6914,
            "Ġ07": 6915,
            "æĭħä»»": 6916,
            "ett": 6917,
            "ishi": 6918,
            "è²¬": 6919,
            "å°¤åħ¶": 6920,
            "ican": 6921,
            "Ġä»ĸ": 6922,
            "åı¸æ³ķ": 6923,
            "DI": 6924,
            "_data": 6925,
            "Ġattack": 6926,
            "èŃī": 6927,
            "Ġdevice": 6928,
            "çľŁçļĦ": 6929,
            "Input": 6930,
            "azar": 6931,
            "æģĲæĢĸ": 6932,
            "onas": 6933,
            "edes": 6934,
            "filter": 6935,
            "NI": 6936,
            "ä»įçĦ¶": 6937,
            "fu": 6938,
            "æ¯«": 6939,
            "legal": 6940,
            "top": 6941,
            "ĠLeg": 6942,
            "ç®ĢåĮĸåŃĹ": 6943,
            "æľīéĻĲ": 6944,
            "Ġrate": 6945,
            "ĠCentre": 6946,
            "è§ĦèĮĥåŃĹ": 6947,
            "Ġmarket": 6948,
            "æķħäºĭ": 6949,
            "DC": 6950,
            "Ġgovernment": 6951,
            "æĶ¹éĿ©": 6952,
            "jud": 6953,
            "éŁ¿": 6954,
            "ambo": 6955,
            "_r": 6956,
            "-w": 6957,
            "Ġ56": 6958,
            "æĺł": 6959,
            "nex": 6960,
            "åı¶": 6961,
            "Ġurl": 6962,
            "ĠOff": 6963,
            "istic": 6964,
            "RL": 6965,
            "ĠMarch": 6966,
            "Ġattention": 6967,
            "anis": 6968,
            "TS": 6969,
            "ä»£è¡¨åĽ¢": 6970,
            "ĠBur": 6971,
            "erve": 6972,
            "è´«": 6973,
            "uez": 6974,
            "æĪĳä¸į": 6975,
            "æĿ¡çº¦": 6976,
            "erry": 6977,
            "æ¸¡": 6978,
            "æĿľ": 6979,
            "Ġgor": 6980,
            "Ġremove": 6981,
            "iger": 6982,
            "å¿ł": 6983,
            "ĠBro": 6984,
            "Ġ1990": 6985,
            "/2017": 6986,
            "amm": 6987,
            "aring": 6988,
            "è·ĳ": 6989,
            "ãģĦ": 6990,
            "æ¢ģ": 6991,
            "èĢħçļĦ": 6992,
            "çĭ¬ç«ĭ": 6993,
            "Ġseries": 6994,
            "ĠNews": 6995,
            "Source": 6996,
            "ç¹¼": 6997,
            "ĠÎ±": 6998,
            "Ġmemory": 6999,
            "ĠIV": 7000,
            "ĠProgram": 7001,
            "omo": 7002,
            "uffer": 7003,
            "æ»ĭ": 7004,
            "é¡º": 7005,
            "oid": 7006,
            "obj": 7007,
            "å½Ĵ": 7008,
            "Ġblog": 7009,
            "Ġmakes": 7010,
            "Cu": 7011,
            "BI": 7012,
            "Ġnothing": 7013,
            "Ġanything": 7014,
            "ç²¾ç¥ŀ": 7015,
            "search": 7016,
            "-15": 7017,
            "Ġ\"P": 7018,
            "ecu": 7019,
            "Ġvue": 7020,
            "Ġcover": 7021,
            "ĠæĪĳä»¬": 7022,
            "ä¸ĭçļĦ": 7023,
            "fix": 7024,
            "ĠEU": 7025,
            "osi": 7026,
            "ãĢįçļĦ": 7027,
            "å½©": 7028,
            "ĠLog": 7029,
            "åĭĿ": 7030,
            "Ġmaking": 7031,
            "çĽĸ": 7032,
            "Ġá": 7033,
            "zy": 7034,
            "lea": 7035,
            "Ġresearch": 7036,
            "ĠNor": 7037,
            "IX": 7038,
            "åıĳè¨Ģ": 7039,
            "oli": 7040,
            "Fin": 7041,
            "iling": 7042,
            "Af": 7043,
            "æ¡¥": 7044,
            "uler": 7045,
            "\"K": 7046,
            "é©»": 7047,
            "uin": 7048,
            "Dep": 7049,
            "gem": 7050,
            "rup": 7051,
            "TA": 7052,
            "çķ¶æĻĤ": 7053,
            "Ġschool": 7054,
            "Ġdistance": 7055,
            "æĺ¾ç¤º": 7056,
            "æĢķ": 7057,
            "ç¨³": 7058,
            "è§īå¾Ĺ": 7059,
            "QU": 7060,
            "umer": 7061,
            "ï¼īæĺ¯": 7062,
            "Row": 7063,
            "çļĦè¯Ŀ": 7064,
            "ĠPet": 7065,
            "åįķä½į": 7066,
            "ben": 7067,
            "COM": 7068,
            "æ»¿": 7069,
            "oot": 7070,
            "Number": 7071,
            "Width": 7072,
            "Instance": 7073,
            "Ð¾Ð»": 7074,
            "Ġenough": 7075,
            "åİŁåĪĻ": 7076,
            "å¤§éĩı": 7077,
            "Format": 7078,
            "æĿĤ": 7079,
            "Create": 7080,
            "<div": 7081,
            "Be": 7082,
            "iance": 7083,
            "next": 7084,
            "åİĤ": 7085,
            "Ġbecome": 7086,
            "Ġbox": 7087,
            "æŃ¸": 7088,
            "Ġfilter": 7089,
            "æ³ķåĽ½": 7090,
            "Min": 7091,
            "ç¢º": 7092,
            "document": 7093,
            "Ġroad": 7094,
            "ĠHarry": 7095,
            "ĠUnion": 7096,
            "æįĲ": 7097,
            "begin": 7098,
            "ç¡¬": 7099,
            "æľºåĪ¶": 7100,
            "Ġhref=\"": 7101,
            "éĬĢ": 7102,
            "otion": 7103,
            "ä»Ģéº¼": 7104,
            "åįıè®®": 7105,
            "ĠOpen": 7106,
            "åīįå¾Ģ": 7107,
            "åĮĹéĥ¨": 7108,
            "sim": 7109,
            "ç³ĸ": 7110,
            "è½®": 7111,
            "åĨ²çªģ": 7112,
            "Method": 7113,
            "-o": 7114,
            "Ġanalysis": 7115,
            "acle": 7116,
            "åĽ½åĨħ": 7117,
            "Ġclick": 7118,
            "ibr": 7119,
            "Ġ1996": 7120,
            "Ġbackground": 7121,
            "é¤ĺ": 7122,
            "oct": 7123,
            "uno": 7124,
            "Base": 7125,
            "Factory": 7126,
            "ç¬Ķ": 7127,
            "ĠAcc": 7128,
            "å¦¹": 7129,
            "åĴĮåħ¶ä»ĸ": 7130,
            "Ġlooking": 7131,
            "Ġrather": 7132,
            "Ġfood": 7133,
            "éĺ´": 7134,
            "nt": 7135,
            "è¾ĳ": 7136,
            "åģı": 7137,
            "ĠIP": 7138,
            "ĠBay": 7139,
            "Ġå¤§": 7140,
            "åįģäºĮ": 7141,
            "çĸ«": 7142,
            "eso": 7143,
            "dos": 7144,
            "Ġ57": 7145,
            "ĠCentral": 7146,
            "çĶµè§Ĩ": 7147,
            "Ġ59": 7148,
            "äº¤éĢļ": 7149,
            "Ġproblems": 7150,
            "197": 7151,
            "Ġzu": 7152,
            "vin": 7153,
            "ä»ĸåľ¨": 7154,
            "åĩºçļĦ": 7155,
            "LL": 7156,
            "æºĸ": 7157,
            "hal": 7158,
            "ĠBat": 7159,
            "ä¿ĿæĮģ": 7160,
            "çĤİ": 7161,
            "location": 7162,
            "åľ°ä½į": 7163,
            "onda": 7164,
            "Va": 7165,
            "Ġsn": 7166,
            "Ġwindow": 7167,
            "2;": 7168,
            "ped": 7169,
            "sq": 7170,
            "click": 7171,
            "kal": 7172,
            "Hel": 7173,
            "é¢Ĩå¯¼": 7174,
            "_ex": 7175,
            "logo": 7176,
            "ubern": 7177,
            "prim": 7178,
            "cover": 7179,
            "ĠVir": 7180,
            "aking": 7181,
            "æŃ§": 7182,
            "conf": 7183,
            "tout": 7184,
            "request": 7185,
            "TE": 7186,
            "Ġthread": 7187,
            "null": 7188,
            "åŃ¦ä¹ł": 7189,
            "AND": 7190,
            "SP": 7191,
            "çıł": 7192,
            "_L": 7193,
            "ĠMer": 7194,
            "ä¾§": 7195,
            "obo": 7196,
            "éĽĨåĽ¢": 7197,
            "Script": 7198,
            "??": 7199,
            "ĠCanada": 7200,
            "It's": 7201,
            "idea": 7202,
            "grad": 7203,
            "Ġgraph": 7204,
            "ĠNorth": 7205,
            "ovo": 7206,
            "Ge": 7207,
            "æĻĤéĸĵ": 7208,
            "è§£æĶ¾": 7209,
            "dem": 7210,
            "Read": 7211,
            "æ³ī": 7212,
            "çĿ¡": 7213,
            "ĠIg": 7214,
            "é²ľ": 7215,
            "éº¦": 7216,
            "å®®": 7217,
            "atory": 7218,
            "Web": 7219,
            "ĠFund": 7220,
            "-K": 7221,
            "aff": 7222,
            "verse": 7223,
            "ĠTR": 7224,
            "åľį": 7225,
            "ĠJust": 7226,
            "åŃĶ": 7227,
            "aper": 7228,
            "æĺĮ": 7229,
            "SC": 7230,
            "ÐµÐ½": 7231,
            "ç´°": 7232,
            "2000å¹´": 7233,
            "Ġinfo": 7234,
            "first": 7235,
            "å¼ķèµ·": 7236,
            "ĠSoftware": 7237,
            "åĬĥ": 7238,
            "ĠSl": 7239,
            "Ġsecurity": 7240,
            "ç»ĵæŀĦ": 7241,
            "æļ´åĬĽ": 7242,
            "sk": 7243,
            "oda": 7244,
            "/02": 7245,
            "hol": 7246,
            "éļĶ": 7247,
            "åŃ¦éĻ¢": 7248,
            "Ëĩ": 7249,
            "Ġæĺ¯": 7250,
            "ĠFrancisco": 7251,
            "çĶ±æĸ¼": 7252,
            "ä¸»ä»»": 7253,
            "é¤Ĳ": 7254,
            "å·¥åħ·": 7255,
            "åĩĨå¤ĩ": 7256,
            "åķıé¡Į": 7257,
            "Ġdeal": 7258,
            "Ele": 7259,
            "éĩĩçĶ¨": 7260,
            "rows": 7261,
            "Ġhot": 7262,
            "ĠHen": 7263,
            "ĠProt": 7264,
            "éľĩ": 7265,
            "å¸ķ": 7266,
            "éĮ¢": 7267,
            "cm": 7268,
            "gg": 7269,
            "deb": 7270,
            "èĭ±åĽ½": 7271,
            "Ġtouch": 7272,
            "E+": 7273,
            "Ġmodule": 7274,
            "æ®¿": 7275,
            "æĶ¯åĬ©": 7276,
            "ĠOh": 7277,
            "-y": 7278,
            "æĥł": 7279,
            "åľ°çļĦ": 7280,
            "çĨŁ": 7281,
            "æĪĳæĥ³": 7282,
            "once": 7283,
            "Default": 7284,
            "èŃĺ": 7285,
            "One": 7286,
            "ĠD2": 7287,
            "edi": 7288,
            "å»ºçŃĳ": 7289,
            "ĠSE": 7290,
            "ĠLan": 7291,
            "æıı": 7292,
            "ĠPut": 7293,
            "node": 7294,
            "adar": 7295,
            "float": 7296,
            "å¼ºè°ĥ": 7297,
            "Ġcharge": 7298,
            "wood": 7299,
            "é¬¼": 7300,
            "ç¶ĵæ¿Ł": 7301,
            "è®¯": 7302,
            "æºª": 7303,
            "çĨ±": 7304,
            "å®¹æĺĵ": 7305,
            "Ġwords": 7306,
            "/08": 7307,
            "ä¸ĢåĪĩ": 7308,
            "ige": 7309,
            "æĪ´": 7310,
            "è¾Ľ": 7311,
            "_G": 7312,
            "True": 7313,
            "çĮ®": 7314,
            "arts": 7315,
            "tical": 7316,
            "ç³»çµ±": 7317,
            "onna": 7318,
            "child": 7319,
            "æĴ¤": 7320,
            "çĭĢ": 7321,
            "Ġstep": 7322,
            "2004å¹´": 7323,
            "åı°çģ£": 7324,
            "ĠPark": 7325,
            "OK": 7326,
            "ĠNone": 7327,
            "Ġconcept": 7328,
            "Ġjar": 7329,
            "ĠEdit": 7330,
            "Ġtoday": 7331,
            "æĿĲæĸĻ": 7332,
            "æ®ĸ": 7333,
            "bil": 7334,
            "-re": 7335,
            "ised": 7336,
            "ä¸ºä»Ģä¹Ī": 7337,
            "Ġobj": 7338,
            "nbsp;": 7339,
            "éŀ": 7340,
            "Ġreview": 7341,
            "ĠAND": 7342,
            "Ġothers": 7343,
            "çī¹åĪ«æĺ¯": 7344,
            "ĠFrank": 7345,
            "ĠWilliam": 7346,
            "Na": 7347,
            "CA": 7348,
            "é«ĺçº§": 7349,
            "å¹³çŃī": 7350,
            "ĠGran": 7351,
            "é¡¯": 7352,
            "1-": 7353,
            "è³ĩæĸĻ": 7354,
            "Ġfloat": 7355,
            "______": 7356,
            "rs": 7357,
            "å®ª": 7358,
            "Me": 7359,
            "è´µ": 7360,
            "urch": 7361,
            "Ġconnection": 7362,
            "blo": 7363,
            "zh": 7364,
            "ç»ĵæĿŁ": 7365,
            "apping": 7366,
            "/5": 7367,
            "æ³¨æĦıåĪ°": 7368,
            "ĠWindows": 7369,
            "è¿Ļä¹Ī": 7370,
            "Ġ05": 7371,
            "åĲĮå¹´": 7372,
            "æĪ²": 7373,
            "æ¸¬": 7374,
            "ĠNet": 7375,
            "egas": 7376,
            "state": 7377,
            "ĠJava": 7378,
            "æłĳ": 7379,
            "rd": 7380,
            "bur": 7381,
            "esis": 7382,
            "ĠNow": 7383,
            "_E": 7384,
            "TH": 7385,
            "è¡¡": 7386,
            "ulture": 7387,
            "Ġtag": 7388,
            "IPA": 7389,
            "2011å¹´": 7390,
            "Ġhat": 7391,
            "fit": 7392,
            "åĸĿ": 7393,
            "book": 7394,
            "product": 7395,
            "Ġbelieve": 7396,
            "1\\": 7397,
            "ĠOut": 7398,
            "åĿĹ": 7399,
            "è¶£": 7400,
            "Ġpositive": 7401,
            "é»ĺ": 7402,
            "ITY": 7403,
            "åħħåĪĨ": 7404,
            "è¿·": 7405,
            "ĠCas": 7406,
            "Ġ1995": 7407,
            "å¥ı": 7408,
            "DF": 7409,
            "-le": 7410,
            "è¿Ŀ": 7411,
            "pet": 7412,
            "ed_": 7413,
            "å¥¹çļĦ": 7414,
            "agon": 7415,
            "éī": 7416,
            "sw": 7417,
            "bour": 7418,
            "åĮ»éĻ¢": 7419,
            "kn": 7420,
            "lat": 7421,
            "Ġcross": 7422,
            "åĬ±": 7423,
            "Ġstation": 7424,
            "lor": 7425,
            "åĬŀåħ¬": 7426,
            "1:": 7427,
            "/h": 7428,
            "æ¨¡å¼ı": 7429,
            "ville": 7430,
            "Ġbusiness": 7431,
            "ĠCH": 7432,
            "akh": 7433,
            "ç»¼": 7434,
            "Ġdiff": 7435,
            "æĺŁæľŁ": 7436,
            "éŁ©": 7437,
            "Status": 7438,
            "Label": 7439,
            "ĠDirect": 7440,
            "æī¾åĪ°": 7441,
            "åĴ¨è¯¢": 7442,
            "atr": 7443,
            "Ver": 7444,
            "åľ¨è¿Ļ": 7445,
            "Ġperformance": 7446,
            "yes": 7447,
            "Çİ": 7448,
            "âĨĴ": 7449,
            "package": 7450,
            "Ġ58": 7451,
            "p_": 7452,
            "gt;": 7453,
            "æ±īè¯Ń": 7454,
            "å®īæİĴ": 7455,
            "çĽ¸ä¿¡": 7456,
            "ç§ĳæĬĢ": 7457,
            "ĠPop": 7458,
            "ĠTro": 7459,
            "ä»¥ä¾¿": 7460,
            "ä½įç½®": 7461,
            "èĹĿ": 7462,
            "è³ĵ": 7463,
            "çī¹æ´¾": 7464,
            "ĠAmerican": 7465,
            "æį·": 7466,
            "ĠBi": 7467,
            "Ġmatter": 7468,
            "ç¿Ĵ": 7469,
            "ä»Ļ": 7470,
            "ipt": 7471,
            "ä¸ĸçºª": 7472,
            "èĻİ": 7473,
            "rian": 7474,
            "Let": 7475,
            "Union": 7476,
            "è¬Ŀ": 7477,
            "/04": 7478,
            "Client": 7479,
            "éĹ®é¢ĺçļĦ": 7480,
            "ĠCel": 7481,
            "åĪ¶å®ļ": 7482,
            "onz": 7483,
            "/g": 7484,
            "/19": 7485,
            "abr": 7486,
            "åĨįæ¬¡": 7487,
            "PP": 7488,
            "Ġ120": 7489,
            "æ®ĭ": 7490,
            "ÅĤ": 7491,
            "ilu": 7492,
            "ĠXX": 7493,
            "vista": 7494,
            "èĸ©": 7495,
            "fre": 7496,
            "inet": 7497,
            "ĠEN": 7498,
            "aver": 7499,
            "è®¤è¯Ĩ": 7500,
            "Ġzero": 7501,
            "å¿Ļ": 7502,
            "Window": 7503,
            "kr": 7504,
            "more": 7505,
            "ef": 7506,
            "ĠPress": 7507,
            "Ġmm": 7508,
            "çŃ¹": 7509,
            "Menu": 7510,
            "BC": 7511,
            "æĢĢ": 7512,
            "Ð½Ð¾": 7513,
            "icht": 7514,
            "ĠDur": 7515,
            "ĠKing": 7516,
            "è®¾ç«ĭ": 7517,
            "æĭīåħĭ": 7518,
            "URL": 7519,
            "lines": 7520,
            "iding": 7521,
            "ä»ĭç»į": 7522,
            "Ġsong": 7523,
            "ging": 7524,
            "base": 7525,
            "esi": 7526,
            "é¨": 7527,
            "è©©": 7528,
            "Ġ02": 7529,
            "æģ¶": 7530,
            "è¯Ħä¼°": 7531,
            "è´¹çĶ¨": 7532,
            "AME": 7533,
            "çįİ": 7534,
            "èĦ±": 7535,
            "tax": 7536,
            "ĠJu": 7537,
            "ixer": 7538,
            "Ġrender": 7539,
            "Opt": 7540,
            "éĻĲåĪ¶": 7541,
            "Cal": 7542,
            "äººçī©": 7543,
            "TO": 7544,
            "æ¡Ĩæŀ¶": 7545,
            "zig": 7546,
            "aud": 7547,
            "olid": 7548,
            "ĠAugust": 7549,
            "Filter": 7550,
            "åĪĢ": 7551,
            "ĠAustralia": 7552,
            "ced": 7553,
            "æĿ¯": 7554,
            "æĶ¶åħ¥": 7555,
            "éĺ¿æĭīä¼¯": 7556,
            "ç½Ĺæĸ¯": 7557,
            "å¢¨": 7558,
            "ĠMi": 7559,
            "ARR": 7560,
            "ç§¦": 7561,
            "ç¤¾æľĥ": 7562,
            "dd": 7563,
            "æĪĳæĺ¯": 7564,
            "åĢ«": 7565,
            "å·¡": 7566,
            "ĠMos": 7567,
            "2012å¹´": 7568,
            "rown": 7569,
            "éĿ©åĳ½": 7570,
            "ĠPos": 7571,
            "Ġwait": 7572,
            "ĠWar": 7573,
            "å®īåħ¨çĲĨäºĭä¼ļ": 7574,
            "2013å¹´": 7575,
            "éĤ£ä¸ª": 7576,
            "éłĪ": 7577,
            "Ġcame": 7578,
            "Ġstore": 7579,
            "ä¼Ļä¼´": 7580,
            "light": 7581,
            "txt": 7582,
            "å¤§åĪ©": 7583,
            "èĪį": 7584,
            "yer": 7585,
            "éĿĴå¹´": 7586,
            "ĠRich": 7587,
            "Ġstudents": 7588,
            "æ±Ĺ": 7589,
            "2003å¹´": 7590,
            "éŁ³ä¹Ĳ": 7591,
            "Fig": 7592,
            "è©ķ": 7593,
            "Ġsystems": 7594,
            "Ġä¸Ģ": 7595,
            "ĠProf": 7596,
            "Ġ06": 7597,
            "å·¦åı³": 7598,
            "2002å¹´": 7599,
            "Ġswitch": 7600,
            "Ġhouse": 7601,
            "prise": 7602,
            "DL": 7603,
            "/S": 7604,
            "éłĨ": 7605,
            "igger": 7606,
            "unde": 7607,
            "nas": 7608,
            "éģĤ": 7609,
            "é½Ĭ": 7610,
            "æĿ°": 7611,
            "Dr": 7612,
            "çĻ¼å±ķ": 7613,
            "/7": 7614,
            "ĠFOR": 7615,
            "MP": 7616,
            "See": 7617,
            "AV": 7618,
            "å°ıæĹ¶": 7619,
            "ledge": 7620,
            "-F": 7621,
            "AY": 7622,
            "Ġvector": 7623,
            "bal": 7624,
            "æĪĺäºī": 7625,
            "Ġhotel": 7626,
            "ä»Ķ": 7627,
            "ç©Ĩ": 7628,
            "ĠLou": 7629,
            "Ġwin": 7630,
            "èµĦéĩĳ": 7631,
            "æ¬¢è¿İ": 7632,
            "Ġpattern": 7633,
            "MB": 7634,
            "Ġpolicy": 7635,
            "doc": 7636,
            "åįģåĪĨ": 7637,
            "ĠST": 7638,
            "åĩ¡": 7639,
            "å¯§": 7640,
            "empty": 7641,
            "èĭ±åľĭ": 7642,
            "åıĳå±ķä¸Ń": 7643,
            "éģµ": 7644,
            "Ġtown": 7645,
            "dy": 7646,
            "json": 7647,
            "arro": 7648,
            "Um": 7649,
            "å¾Ĳ": 7650,
            "åħģ": 7651,
            "IST": 7652,
            "æĸ¯çī¹": 7653,
            "çķ°": 7654,
            "å®¾": 7655,
            "android": 7656,
            "phone": 7657,
            "1111": 7658,
            "Ġtrip": 7659,
            "ãĢķ": 7660,
            "åĩºçĶŁ": 7661,
            "è¹": 7662,
            "pm": 7663,
            "ĠãĢĬ": 7664,
            "å·²ç¶ĵ": 7665,
            "Rem": 7666,
            "æ©ĭ": 7667,
            "ç©ºéĹ´": 7668,
            "icy": 7669,
            "ä¸°": 7670,
            "Ġ1994": 7671,
            "ãĢĶ": 7672,
            "éģ£": 7673,
            "reat": 7674,
            "agen": 7675,
            "ëĭ": 7676,
            "è¿Ľç¨ĭ": 7677,
            "][": 7678,
            "æ´ŀ": 7679,
            "çĤ®": 7680,
            "æĬĺ": 7681,
            "Br": 7682,
            "çļĦâĢľ": 7683,
            "ĠDu": 7684,
            "aker": 7685,
            "è®¡ç®Ĺ": 7686,
            "tein": 7687,
            "å±¤": 7688,
            "å¥¶": 7689,
            "l/": 7690,
            "ĠLeague": 7691,
            "Te": 7692,
            "Ġever": 7693,
            "fort": 7694,
            "ĠOR": 7695,
            "çŁ¥è¯Ĩ": 7696,
            "Ġkej": 7697,
            "åĲĮæĻĤ": 7698,
            "ĠâĶ": 7699,
            "èĪªç©º": 7700,
            "ression": 7701,
            "wise": 7702,
            "ä¼ļåĳĺ": 7703,
            "static": 7704,
            "Ġhalf": 7705,
            "ilia": 7706,
            "uren": 7707,
            "æŃ£å¸¸": 7708,
            "otor": 7709,
            "Ġlove": 7710,
            "ifer": 7711,
            "Ġmind": 7712,
            "Vis": 7713,
            "æŃ»äº¡": 7714,
            "åľŁåľ°": 7715,
            "æķĹ": 7716,
            "çĤºãĢĮ": 7717,
            "æ±ł": 7718,
            "ĠSum": 7719,
            "ç»ĦæĪĲ": 7720,
            "ãĢĭï¼Ī": 7721,
            "Mon": 7722,
            "mine": 7723,
            "Ġblack": 7724,
            "ĠDom": 7725,
            "ĠArray": 7726,
            "jan": 7727,
            "xo": 7728,
            "Ref": 7729,
            "æ®Ĭ": 7730,
            "rm": 7731,
            "ĠMu": 7732,
            "ãģĨ": 7733,
            "imm": 7734,
            "Ce": 7735,
            "hon": 7736,
            "ç«ĭæ³ķ": 7737,
            "Ġ04": 7738,
            "ĠWith": 7739,
            "ĠÑĤ": 7740,
            "é©Ĺ": 7741,
            "åºĬ": 7742,
            "-J": 7743,
            "area": 7744,
            "TP": 7745,
            "Ð¶": 7746,
            "Ġlabel": 7747,
            "åľĭéļĽ": 7748,
            "ĠJack": 7749,
            "150": 7750,
            "æ¡ĳ": 7751,
            "Ġcut": 7752,
            "åĭ¢": 7753,
            "è·³": 7754,
            "adem": 7755,
            "ing:": 7756,
            "èº«ä»½": 7757,
            "column": 7758,
            "ä¹±": 7759,
[...]
